{
  "version": "1.0",
  "truncation": null,
  "padding": null,
  "added_tokens": [
    {
      "id": 0,
      "special": true,
      "content": "<s>",
      "single_word": false,
      "lstrip": false,
      "rstrip": false,
      "normalized": false
    },
    {
      "id": 1,
      "special": true,
      "content": "<pad>",
      "single_word": false,
      "lstrip": false,
      "rstrip": false,
      "normalized": false
    },
    {
      "id": 2,
      "special": true,
      "content": "</s>",
      "single_word": false,
      "lstrip": false,
      "rstrip": false,
      "normalized": false
    },
    {
      "id": 3,
      "special": true,
      "content": "<unk>",
      "single_word": false,
      "lstrip": false,
      "rstrip": false,
      "normalized": false
    },
    {
      "id": 4,
      "special": true,
      "content": "<mask>",
      "single_word": false,
      "lstrip": false,
      "rstrip": false,
      "normalized": false
    }
  ],
  "normalizer": {
    "type": "Sequence",
    "normalizers": [
      {
        "type": "NFD"
      },
      {
        "type": "Lowercase"
      },
      {
        "type": "StripAccents"
      }
    ]
  },
  "pre_tokenizer": {
    "type": "Whitespace"
  },
  "post_processor": null,
  "decoder": {
    "type": "BPEDecoder",
    "suffix": "</w>"
  },
  "model": {
    "type": "BPE",
    "dropout": null,
    "unk_token": null,
    "continuing_subword_prefix": null,
    "end_of_word_suffix": null,
    "fuse_unk": false,
    "vocab": {
      "<s>": 0,
      "<pad>": 1,
      "</s>": 2,
      "<unk>": 3,
      "<mask>": 4,
      "一": 5,
      "丁": 6,
      "丂": 7,
      "七": 8,
      "丄": 9,
      "丅": 10,
      "丆": 11,
      "万": 12,
      "丈": 13,
      "三": 14,
      "上": 15,
      "下": 16,
      "丌": 17,
      "不": 18,
      "与": 19,
      "丏": 20,
      "丐": 21,
      "丑": 22,
      "丒": 23,
      "专": 24,
      "且": 25,
      "丕": 26,
      "世": 27,
      "丗": 28,
      "丘": 29,
      "丙": 30,
      "业": 31,
      "丛": 32,
      "东": 33,
      "丝": 34,
      "丞": 35,
      "丟": 36,
      "丠": 37,
      "両": 38,
      "丢": 39,
      "丣": 40,
      "两": 41,
      "严": 42,
      "並": 43,
      "丧": 44,
      "丨": 45,
      "丩": 46,
      "个": 47,
      "丫": 48,
      "丬": 49,
      "中": 50,
      "丮": 51,
      "丯": 52,
      "丰": 53,
      "丱": 54,
      "串": 55,
      "丳": 56,
      "临": 57,
      "丵": 58,
      "丶": 59,
      "丷": 60,
      "丸": 61,
      "丹": 62,
      "为": 63,
      "主": 64,
      "丼": 65,
      "丽": 66,
      "举": 67,
      "丿": 68,
      "乀": 69,
      "乁": 70,
      "乂": 71,
      "乃": 72,
      "乄": 73,
      "久": 74,
      "乆": 75,
      "乇": 76,
      "么": 77,
      "义": 78,
      "乊": 79,
      "之": 80,
      "乌": 81,
      "乍": 82,
      "乎": 83,
      "乏": 84,
      "乐": 85,
      "乑": 86,
      "乒": 87,
      "乓": 88,
      "乔": 89,
      "乕": 90,
      "乖": 91,
      "乗": 92,
      "乘": 93,
      "乙": 94,
      "乚": 95,
      "乛": 96,
      "乜": 97,
      "九": 98,
      "乞": 99,
      "也": 100,
      "习": 101,
      "乡": 102,
      "乢": 103,
      "乣": 104,
      "乤": 105,
      "乥": 106,
      "书": 107,
      "乧": 108,
      "乨": 109,
      "乩": 110,
      "乪": 111,
      "乫": 112,
      "乬": 113,
      "乭": 114,
      "乮": 115,
      "乯": 116,
      "买": 117,
      "乱": 118,
      "乲": 119,
      "乳": 120,
      "乴": 121,
      "乵": 122,
      "乶": 123,
      "乷": 124,
      "乸": 125,
      "乹": 126,
      "乺": 127,
      "乻": 128,
      "乼": 129,
      "乽": 130,
      "乾": 131,
      "乿": 132,
      "亀": 133,
      "亁": 134,
      "亂": 135,
      "亃": 136,
      "亄": 137,
      "亅": 138,
      "了": 139,
      "亇": 140,
      "予": 141,
      "争": 142,
      "亊": 143,
      "事": 144,
      "二": 145,
      "亍": 146,
      "于": 147,
      "亏": 148,
      "亐": 149,
      "云": 150,
      "互": 151,
      "亓": 152,
      "五": 153,
      "井": 154,
      "亖": 155,
      "亗": 156,
      "亘": 157,
      "亙": 158,
      "亚": 159,
      "些": 160,
      "亜": 161,
      "亝": 162,
      "亞": 163,
      "亟": 164,
      "亠": 165,
      "亡": 166,
      "亢": 167,
      "亣": 168,
      "交": 169,
      "亥": 170,
      "亦": 171,
      "产": 172,
      "亨": 173,
      "亩": 174,
      "亪": 175,
      "享": 176,
      "京": 177,
      "亭": 178,
      "亮": 179,
      "亯": 180,
      "亰": 181,
      "亱": 182,
      "亲": 183,
      "亳": 184,
      "亴": 185,
      "亵": 186,
      "亶": 187,
      "亷": 188,
      "亸": 189,
      "亹": 190,
      "人": 191,
      "亻": 192,
      "亼": 193,
      "亽": 194,
      "亾": 195,
      "亿": 196,
      "什": 197,
      "仁": 198,
      "仂": 199,
      "仃": 200,
      "仄": 201,
      "仅": 202,
      "仆": 203,
      "仇": 204,
      "仈": 205,
      "仉": 206,
      "今": 207,
      "介": 208,
      "仌": 209,
      "仍": 210,
      "从": 211,
      "仏": 212,
      "仐": 213,
      "仑": 214,
      "仒": 215,
      "仓": 216,
      "仔": 217,
      "仕": 218,
      "他": 219,
      "仗": 220,
      "付": 221,
      "仙": 222,
      "仚": 223,
      "仛": 224,
      "仜": 225,
      "仝": 226,
      "仞": 227,
      "仟": 228,
      "仠": 229,
      "仡": 230,
      "仢": 231,
      "代": 232,
      "令": 233,
      "以": 234,
      "仦": 235,
      "仧": 236,
      "仨": 237,
      "仩": 238,
      "仪": 239,
      "仫": 240,
      "们": 241,
      "仭": 242,
      "仮": 243,
      "仯": 244,
      "仰": 245,
      "仱": 246,
      "仲": 247,
      "仳": 248,
      "仴": 249,
      "仵": 250,
      "件": 251,
      "价": 252,
      "仸": 253,
      "仹": 254,
      "仺": 255,
      "任": 256,
      "仼": 257,
      "份": 258,
      "仾": 259,
      "一一": 260,
      "一一一一": 261,
      "一一一": 262,
      "一一一一一": 263,
      "一一一一一一": 264,
      "一一乀": 265,
      "一一丠": 266,
      "一一亀": 267,
      "一一丐": 268,
      "一一丈": 269,
      "一一丄": 270,
      "一亀": 271,
      "一乀": 272,
      "丂一一": 273,
      "丁一一": 274,
      "丁一": 275,
      "丂一": 276,
      "一丠": 277,
      "丄一一": 278,
      "丈一一": 279,
      "一一丂": 280,
      "一一一丄": 281,
      "一一一丁": 282,
      "丐一一": 283,
      "一一一丂": 284,
      "一一丠一一一一一": 285,
      "一一一丈": 286,
      "一一丐一一一一一": 287,
      "一一乀一一一一一": 288,
      "一一丁": 289,
      "一一丈一一一一一": 290,
      "一一亀一一一一一": 291,
      "一丐": 292,
      "一一丄一一一一一": 293,
      "丠一一": 294,
      "一一一丁一一一一": 295,
      "一一一丐": 296,
      "丄一": 297,
      "一一丂一一一一一": 298,
      "一一一一亀": 299,
      "一一一丂一一一一": 300,
      "乀一一": 301,
      "一一丁一一一一一": 302,
      "一一一一乀": 303,
      "一丈": 304,
      "一一一丄一一一一": 305,
      "一一一一一丄一一": 306,
      "一一一一一丈一一": 307,
      "丈一": 308,
      "一一一丠": 309,
      "一一一一一丂一一": 310,
      "一一一一一丐一一": 311,
      "一一一一一丁一一": 312,
      "一一丄一一": 313,
      "一一一一一丠一一": 314,
      "一亀一一一": 315,
      "一亀一一一一一一": 316,
      "一一一丁一": 317,
      "一一丠一一": 318,
      "一一一一亀一一一": 319,
      "一一丈一一": 320,
      "一一一丂一": 321,
      "一一一丈一一一一": 322,
      "亀一一": 323,
      "一乀一一一": 324,
      "丠一一一": 325,
      "一一丐一一": 326,
      "一一一一一乀一一": 327,
      "丐一": 328,
      "一一乀一一": 329,
      "一一亀一一": 330,
      "一一一乀": 331,
      "一一一一乀一一一": 332,
      "一乀一一一一一一": 333,
      "一一一一一亀一一": 334,
      "一一一丐一一一一": 335,
      "一一一一一一一一": 336,
      "丐一一一": 337,
      "一丄": 338,
      "一一一丄一": 339,
      "一丠一一一": 340,
      "一一一一丠一一一": 341,
      "丠一": 342,
      "一一一一一一丁一": 343,
      "丁一一一一": 344,
      "一一亠": 345,
      "一一乐": 346,
      "丂一一一一": 347,
      "一丠一一一一一一": 348,
      "丅一一": 349,
      "一一一丈一": 350,
      "一一一丠一一一一": 351,
      "上一一": 352,
      "一乀一一": 353,
      "一一一一一一丂一": 354,
      "一一一亀": 355,
      "一一丨": 356,
      "一一一一丐一一一": 357,
      "乀一": 358,
      "一丐一一一": 359,
      "丈一一一": 360,
      "一丠一一": 361,
      "亀一一一": 362,
      "一亀一一": 363,
      "一丐一一一一一一": 364,
      "一一一一一一丄一": 365,
      "一一一丐一": 366,
      "且一一": 367,
      "一一一乀一一一一": 368,
      "丄一一一一": 369,
      "一丈一一一": 370,
      "一一丄一": 371,
      "一一且": 372,
      "一一亁": 373,
      "一一一一丈一一一": 374,
      "一丂": 375,
      "丁一一一": 376,
      "一亠": 377,
      "一一一一一一丈一": 378,
      "一一丂一": 379,
      "一一一丅": 380,
      "丄一一一": 381,
      "一丈一一一一一一": 382,
      "一一亐": 383,
      "一乐": 384,
      "一一上": 385,
      "一一丂一一": 386,
      "三一一": 387,
      "一一一丠一": 388,
      "一一丁一一": 389,
      "一一么": 390,
      "乀一一一": 391,
      "一一丈一": 392,
      "丈一一一一": 393,
      "一一丁一": 394,
      "一一一上": 395,
      "一一一亀一一一一": 396,
      "丒一一": 397,
      "一一一一丠": 398,
      "丨一一": 399,
      "一一一一一一丐一": 400,
      "亁一一": 401,
      "一亀乀": 402,
      "一一亄": 403,
      "一一丐一": 404,
      "一一一一丄一一一": 405,
      "一一一且": 406,
      "一一乂": 407,
      "一乀丠": 408,
      "一一丅": 409,
      "一一一一一乀": 410,
      "丂一一一一一": 411,
      "丐一一一一": 412,
      "一丄一一一一一一": 413,
      "一丄一一一": 414,
      "一一两": 415,
      "一丐一一": 416,
      "亀一": 417,
      "丂丁一": 418,
      "丑一一": 419,
      "一一一一一一丠一": 420,
      "一一丠一": 421,
      "一一丄丂一": 422,
      "丂一一一": 423,
      "丢一一": 424,
      "一丠丐": 425,
      "一丈一一": 426,
      "一一一一一亀": 427,
      "一一一丨": 428,
      "一一一一一丠": 429,
      "丨一一一": 430,
      "丁一一一一一": 431,
      "乐一一": 432,
      "一一予": 433,
      "一一一一一丐": 434,
      "一一一一丁一一一": 435,
      "一一丒": 436,
      "亠一一一": 437,
      "丄丂一": 438,
      "一一亠一一一一一": 439,
      "丄一一一一一": 440,
      "一一両": 441,
      "丅一": 442,
      "一一一一一丈": 443,
      "一一一三": 444,
      "一一乐一一一一一": 445,
      "丈一一一一一": 446,
      "一一乀丁一一一一": 447,
      "一一乄": 448,
      "一一丈丄一": 449,
      "一一亀一一一": 450,
      "亁一": 451,
      "一亐": 452,
      "一一乀一一丂一一": 453,
      "一一一丁一丂一一": 454,
      "一一丨一一一一一": 455,
      "一一亀一一丁一一": 456,
      "么一一一": 457,
      "一一亀一一丄一一": 458,
      "一一丠一一丁一一": 459,
      "一一一一一一乀一": 460,
      "一一丂丁一": 461,
      "一一一丒": 462,
      "乄一一": 463,
      "一一亀丂一一一一": 464,
      "上一": 465,
      "一一一一丐": 466,
      "一一一丂一丄一一": 467,
      "乐一一一": 468,
      "一一一乀一": 469,
      "一一乀一": 470,
      "一一乀一亀一一一": 471,
      "一一丐丈一": 472,
      "一一且一一一一一": 473,
      "一丁": 474,
      "一一一丁一丈一一": 475,
      "一一亀丂一": 476,
      "一一丐一亀一一一": 477,
      "一一乀一一一": 478,
      "一丂一一一一一一": 479,
      "一一丠一一一": 480,
      "一乀丁一一": 481,
      "一一乀丁一": 482,
      "丠一一一一": 483,
      "一一一乐": 484,
      "一一一两": 485,
      "亠一一": 486,
      "一一一丁一一": 487,
      "一一一丄一丈一一": 488,
      "一一乀丁": 489,
      "一一一丅一一一一": 490,
      "两一一": 491,
      "一一丠一乀一一一": 492,
      "一一丢": 493,
      "一一丠丐一": 494,
      "一一一両": 495,
      "亐一一一": 496,
      "一一丂丁": 497,
      "一一一么": 498,
      "一一上一一一一一": 499,
      "一乀丠一": 500,
      "一亀乀一一": 501,
      "一丄一一": 502,
      "一一三": 503,
      "一么": 504,
      "一一一丂一丐一一": 505,
      "一一丠一一丈一一": 506,
      "一一丐一一丄一一": 507,
      "一一丄丂": 508,
      "一一丈一乀一一一": 509,
      "一一一丁亀一一一": 510,
      "一乀丠一一": 511,
      "両一一": 512,
      "予一一": 513,
      "一一一丂一丁一一": 514,
      "一亀丂一一": 515,
      "一丠丐一": 516,
      "一一一一一一亀一": 517,
      "一丂一一": 518,
      "一一丂丁一一一一": 519,
      "一一亁一一一一一": 520,
      "一一一一丁": 521,
      "一一丐一一一": 522,
      "一一一丂一一": 523,
      "一一丐一一丐一一": 524,
      "乂一一": 525,
      "一一一丈一丐一一": 526,
      "一一乀一一丐一一": 527,
      "且一一一": 528,
      "一一丈一一丂一一": 529,
      "一一一上一一一一": 530,
      "一亀丐": 531,
      "一一亀一乀一一一": 532,
      "一一丈一一丈一一": 533,
      "一一丠一一丠一一": 534,
      "乀一一一一": 535,
      "一一一一丁一": 536,
      "一一丄丂一一一一": 537,
      "一一亀丂": 538,
      "一亀乀一一一一一": 539,
      "一一丐一丠一一一": 540,
      "丑一": 541,
      "一一亀一": 542,
      "亀丂一一": 543,
      "一一一丄一丂一一": 544,
      "一亀乀一": 545,
      "一丐丈一": 546,
      "一一一一丂一一一": 547,
      "一丈丄一": 548,
      "丕一一": 549,
      "一一丅一一一一一": 550,
      "一一乀丠一": 551,
      "予一一一": 552,
      "一一丈丄": 553,
      "一一丄一一丄一一": 554,
      "一一丄一一丁一一": 555,
      "一一什": 556,
      "一一乀一一乀一一": 557,
      "一丨": 558,
      "一一一一一丄丂一": 559,
      "两一一一": 560,
      "一一亀一一丠一一": 561,
      "一一一一一丈丄一": 562,
      "一一一一一丅一一": 563,
      "一一丈丄一一一一": 564,
      "一乀丠一一一一一": 565,
      "一一一丄一丠一一": 566,
      "一一乀一丠一一一": 567,
      "一一一一一丂丁一": 568,
      "一一一一一上一一": 569,
      "一一丈一一一": 570,
      "一一一乂": 571,
      "一一丄一丠一一一": 572,
      "一一一一亀丂一一": 573,
      "严一一": 574,
      "亄一一": 575,
      "一一一一一丐丈一": 576,
      "一乐一一一": 577,
      "一一交": 578,
      "一一一丢": 579,
      "一一习": 580,
      "一一一一一亁一一": 581,
      "个一一": 582,
      "一亠一一一": 583,
      "一一一且一一一一": 584,
      "一一丈一一丠一一": 585,
      "且一": 586,
      "一一一一一且一一": 587,
      "一一一丈一丄一一": 588,
      "一一一一亠": 589,
      "一一一一丈": 590,
      "一一一丐一丠一一": 591,
      "七一一": 592,
      "一一亨": 593,
      "丂丁": 594,
      "一一丐一一乀一一": 595,
      "一一一一乀丁一一": 596,
      "一一丐丈": 597,
      "一一一亐": 598,
      "一一丂一一丂一一": 599,
      "一一一丄一一": 600,
      "一一丄一一丐一一": 601,
      "一丐丈": 602,
      "一丠丐一一": 603,
      "一一一亠": 604,
      "一一丐丈一一一一": 605,
      "一一亀一一亀一一": 606,
      "一一丈丁": 607,
      "一一一一一一一丁": 608,
      "一一乒": 609,
      "一一一丑": 610,
      "么一一": 611,
      "丅一一一一": 612,
      "一一一一一丠丐一": 613,
      "一丠丐一一一一一": 614,
      "丆一一": 615,
      "一一丈一丐一一一": 616,
      "一一一一一丨一一": 617,
      "一一丑": 618,
      "一一亀丄": 619,
      "一一一一亀乀一一": 620,
      "亀一一一一": 621,
      "一一丐丂一一一一": 622,
      "一丁一一一一一一": 623,
      "一一一丁一乀一一": 624,
      "一一亀乀一": 625,
      "一一乔": 626,
      "一一丂一亀一一一": 627,
      "一一丈丁一一一一": 628,
      "一一丠一丐一一一": 629,
      "一一丠一一丄一一": 630,
      "一一丠一一亀一一": 631,
      "一一一丈一一": 632,
      "一一丄一一亀一一": 633,
      "一一丂一一丈一一": 634,
      "一亀丂一一一一一": 635,
      "一丁一一": 636,
      "一一丂一一乀一一": 637,
      "一一乀一一丈一一": 638,
      "一一一一亠一一一": 639,
      "一一一一丂一": 640,
      "一一丠丄一一一一": 641,
      "一一丐一一丂一一": 642,
      "一一一乄": 643,
      "一一丄一一一": 644,
      "一一丠丄一": 645,
      "一一亄一一一一一": 646,
      "乊一一": 647,
      "一一丐丂": 648,
      "一一丈一一一丁一": 649,
      "一一丈一一乀一一": 650,
      "一一丐丂一": 651,
      "一一丄一一丠一一": 652,
      "一一丠一一丂一一": 653,
      "一一一一一乀丠一": 654,
      "丩一一": 655,
      "乀丁一一": 656,
      "一一丁一一丠一一": 657,
      "一一乀一一丄一一": 658,
      "一一丁一一丁一一": 659,
      "一一一一一乐一一": 660,
      "一一亀一一丐一一": 661,
      "一丄丂一": 662,
      "一一乀丂": 663,
      "亐丂一一": 664,
      "上一一一一": 665,
      "一一丰": 666,
      "乄一一一": 667,
      "一一一丈一乀一一": 668,
      "一一丠丐一一一一": 669,
      "一一五": 670,
      "三一": 671,
      "一一一一乐": 672,
      "丒一": 673,
      "一一一一乀丠一一": 674,
      "一一一丐一丈一一": 675,
      "一一丐一一丁一一": 676,
      "一一丈一一丁一一": 677,
      "丈丄一": 678,
      "一一一一乐一一一": 679,
      "一一亀丐一": 680,
      "一一一丨一一一一": 681,
      "一一丐一一亀一一": 682,
      "亀乀一一": 683,
      "一一一丁一一丁一": 684,
      "一一乀丈一": 685,
      "丨丁一一": 686,
      "一一丂一一丐一一": 687,
      "一一乀丈一一一一": 688,
      "一一丠丐": 689,
      "一一乂一一一一一": 690,
      "亀丈一一": 691,
      "一丐丈一一一一一": 692,
      "一一丐一一一丂一": 693,
      "一一丠丁": 694,
      "一一亀一一丈一一": 695,
      "一一丠丄": 696,
      "一一乀一一一丁一": 697,
      "一丐丈一一": 698,
      "一一丂一丐一一一": 699,
      "一一丁一一丄一一": 700,
      "一一个": 701,
      "么丁一一": 702,
      "一一一亀一": 703,
      "一一一丠一乀一一": 704,
      "一一丠丁一": 705,
      "一一丈丁一": 706,
      "一一丠丂一": 707,
      "交一一一": 708,
      "亐一一": 709,
      "一一丘": 710,
      "一一一亁": 711,
      "一一一一一一一丂": 712,
      "一一亂": 713,
      "一一乀丂一一一一": 714,
      "一一一亄": 715,
      "一一乀丂一": 716,
      "乔一一": 717,
      "一一丠丁一一一一": 718,
      "一一一丁一丠一一": 719,
      "一一乊": 720,
      "一亀一一一丐一一": 721,
      "丢一": 722,
      "一一丈一亀一一一": 723,
      "亨一一一": 724,
      "五一一一": 725,
      "一一一一一亀乀一": 726,
      "一一丠一一一丁一": 727,
      "一一一丂亀一一一": 728,
      "一一亐一一一一一": 729,
      "一一丄一丈一一一": 730,
      "一一一一丂": 731,
      "一乀丄一一": 732,
      "一一一丂一亀一一": 733,
      "亀丄一一": 734,
      "一一丁一一丈一一": 735,
      "一一丐一丈一一一": 736,
      "一一一丄一丁一一": 737,
      "一乀丁一一一一一": 738,
      "一一一丠一一": 739,
      "一一両一一一一一": 740,
      "一一丁一乀一一一": 741,
      "一一一丁一丐一一": 742,
      "一亀丂": 743,
      "乀丂一一": 744,
      "一一一一一亠一一": 745,
      "一一一丅一": 746,
      "一一亀丐一一一一": 747,
      "一一亀丄一一一一": 748,
      "一一两一一一一一": 749,
      "一一么一一一一一": 750,
      "一一丄一亀一一一": 751,
      "一一乁": 752,
      "一乀丂一一": 753,
      "一一一予": 754,
      "一一一一丠丐一一": 755,
      "一一丠一一一丄一": 756,
      "一一丐丁": 757,
      "一丈丄": 758,
      "丐丈一": 759,
      "一一乀丠一一一一": 760,
      "一一乀丈": 761,
      "一一丐一一丈一一": 762,
      "丠丁一一": 763,
      "一一一一丄": 764,
      "一一一丈一丂一一": 765,
      "一一一上一": 766,
      "一一丠一一丐一一": 767,
      "一一亁一一": 768,
      "一一丈一一丄一一": 769,
      "一亀丄一一": 770,
      "一一一一丨一一一": 771,
      "一一乀丄一": 772,
      "一一亀一一一丂一": 773,
      "一亀一一亀一一一": 774,
      "一丠丁一一": 775,
      "一亀一一一丂一一": 776,
      "一什": 777,
      "一一一丂一一丂一": 778,
      "一一亀丈一": 779,
      "一一丒一一一一一": 780,
      "一一丄一乀一一一": 781,
      "一一一三一一一一": 782,
      "一丈丄一一": 783,
      "一一一七": 784,
      "一一一丐一一": 785,
      "一一丌": 786,
      "一丈丄一一一一一": 787,
      "一一乀三": 788,
      "一亄": 789,
      "乒一一": 790,
      "一一一一一一一丄": 791,
      "一一丩": 792,
      "乁一一": 793,
      "一丐丁一一": 794,
      "一一丂一一一丁一": 795,
      "一一乀一一一丂一": 796,
      "一一一丠一丐一一": 797,
      "一一乀一一丠一一": 798,
      "乀丠一一": 799,
      "一乀一一一丈一一": 800,
      "一一一一亀丄一一": 801,
      "一一一丂一乀一一": 802,
      "一一丁一一亀一一": 803,
      "一一丈一一丐一一": 804,
      "一一一丐一丄一一": 805,
      "一两": 806,
      "一一丐一一丠一一": 807,
      "一丠丄一一": 808,
      "一一丄一一丂一一": 809,
      "一乀丈一一": 810,
      "一一一丩": 811,
      "一一亀丄一": 812,
      "一丂丁一": 813,
      "一一一丐一亀一一": 814,
      "一一一一一一亁一": 815,
      "亂一一": 816,
      "一亀丐一一一一一": 817,
      "一一乀丠": 818,
      "一一丄一一乀一一": 819,
      "一一一一乀丂一一": 820,
      "一且": 821,
      "一亀一一一丄一一": 822,
      "一一一一一乀丁一": 823,
      "一一一乐一一一一": 824,
      "一一一丄乀一一一": 825,
      "一一丄一一一丂一": 826,
      "一一一丂一丠一一": 827,
      "一一一一一三一一": 828,
      "一予": 829,
      "一一丐丁一": 830,
      "一一一且一": 831,
      "一一丄一一丈一一": 832,
      "一一一丈亀一一一": 833,
      "一一乀丄": 834,
      "一一丈一一亀一一": 835,
      "一一丂一一丠一一": 836,
      "一一丠一一乀一一": 837,
      "一一一丒一一一一": 838,
      "一亀一一一乀一一": 839,
      "一一且一一": 840,
      "一一一丂丁": 841,
      "一一一一一丄": 842,
      "一丠丂一一": 843,
      "一一一丆": 844,
      "丠丂一一": 845,
      "一一乀一一丁一一": 846,
      "一一一両一一一一": 847,
      "一一一丂丠一一一": 848,
      "丌一一": 849,
      "一一一严": 850,
      "一一亀丒": 851,
      "一乀丈": 852,
      "一一亅": 853,
      "一一一亀一一": 854,
      "一一丠丂一一一一": 855,
      "一一一一丠丁一一": 856,
      "一一亀一一丂一一": 857,
      "一一三一一一一一": 858,
      "乀丄一一": 859,
      "一亀一一一一": 860,
      "丐一一一一一": 861,
      "一一乀丄一一一一": 862,
      "一一一丄一一丁一": 863,
      "一一丁一丈一一一": 864,
      "一一亀一一乀一一": 865,
      "一乀三一一": 866,
      "一一丂一乀一一一": 867,
      "一一一丠一丈一一": 868,
      "一一乀一一一丈一": 869,
      "亀一一一一一一一": 870,
      "一一丠一亀一一一": 871,
      "一一一丕": 872,
      "一乀丁一": 873,
      "五一一": 874,
      "一一一一亐一一一": 875,
      "一一一一么一一一": 876,
      "一一丐丁一一一一": 877,
      "一亀丂一": 878,
      "一一亀且": 879,
      "一一丐一一一丁一": 880,
      "丠丐一一": 881,
      "一一亡": 882,
      "一一一丐一丁一一": 883,
      "一一一一一丒一一": 884,
      "一一丈一一一丄一": 885,
      "一一一乀一亀一一": 886,
      "一乀丁": 887,
      "一一丁一一丐一一": 888,
      "一一丂一一丄一一": 889,
      "一一予一一一一一": 890,
      "亄一一一": 891,
      "一亠一一一一一一": 892,
      "乔一一一": 893,
      "一亀一一丠一一一": 894,
      "丄丂": 895,
      "七一": 896,
      "丠一一一一一": 897,
      "一一一一丐丈一一": 898,
      "一一一丁一丄一一": 899,
      "一亀丐一一": 900,
      "一一一乒": 901,
      "一一丂一一丁一一": 902,
      "一亀乂": 903,
      "丨一": 904,
      "一一亀乀一一一一": 905,
      "一亀一": 906,
      "一一丂一丠一一一": 907,
      "一一丠丂": 908,
      "一一一丁乀一一一": 909,
      "一一乀丁一一": 910,
      "一一一两一一一一": 911,
      "一一丆": 912,
      "一一乄一一一一一": 913,
      "一一丐一乀一一一": 914,
      "一一亀丈": 915,
      "一一一丁一一丄一": 916,
      "亀丐一一": 917,
      "一乀一一一丠一一": 918,
      "一亁": 919,
      "一一丕": 920,
      "一一乀一一亀一一": 921,
      "一丐丂一一": 922,
      "一一上一一": 923,
      "一乀一一一丁一一": 924,
      "一一一丌": 925,
      "一一一丁丐一一一": 926,
      "一丠丅一一": 927,
      "一乀丈一一一一一": 928,
      "亨一一": 929,
      "一一一一一一一丈": 930,
      "一一亀一亀一一一": 931,
      "一一一乀一一": 932,
      "丠丐一": 933,
      "一一亀丐": 934,
      "一一一丁一丁一一": 935,
      "一一亀丈一一一一": 936,
      "一一一乊": 937,
      "一习": 938,
      "一一丈一丄一一一": 939,
      "一亀丈一一": 940,
      "一一亀一一一丄一": 941,
      "一一一个": 942,
      "一乀一一乀一一一": 943,
      "亠丄一一": 944,
      "丘一一": 945,
      "一亀丄": 946,
      "一一亀乀": 947,
      "一亀乐": 948,
      "両一": 949,
      "一一一乀一丐一一": 950,
      "一一丢一一一一一": 951,
      "一一一一一亀丂一": 952,
      "一一一丄一一丄一": 953,
      "一乀一一一一": 954,
      "一丈丁一一": 955,
      "一一一一一一丂丁": 956,
      "一丠一一一丄一一": 957,
      "一一严": 958,
      "一丨一一一": 959,
      "一乀上一一": 960,
      "一乀一一一丂一一": 961,
      "一一乀一乀一一一": 962,
      "一一丠一一一丂一": 963,
      "一一丅一一": 964,
      "一一亀一丠一一一": 965,
      "上一一一一一": 966,
      "乐丂一一": 967,
      "一一一丄一乀一一": 968,
      "一一一一一两一一": 969,
      "一一丂一丄一一一": 970,
      "一一一丄一亀一一": 971,
      "一丄丂一一一一一": 972,
      "一乄": 973,
      "予丂一一": 974,
      "一一一丂一丈一一": 975,
      "一一一一什": 976,
      "一一一丂一丂一一": 977,
      "一一丁一一丂一一": 978,
      "一亀一一一丈一一": 979,
      "一一一丄亀一一一": 980,
      "一一一丠一丂一一": 981,
      "一一一一一丂": 982,
      "乄一": 983,
      "一一亀丂一一": 984,
      "一丐丁一": 985,
      "一一丐一一一丈一": 986,
      "一一丠丅": 987,
      "一一一丘": 988,
      "一乀丅一一": 989,
      "一一一一亀丈一一": 990,
      "一一丈一丠一一一": 991,
      "一一一一一丁": 992,
      "一一一丁一亀一一": 993,
      "一亀且": 994,
      "一一一乁": 995,
      "一一丠一丠一一一": 996,
      "丐丈一一": 997,
      "交一一": 998,
      "一一一一一両一一": 999,
      "一一一丑一一一一": 1000,
      "一一一一亀丐一一": 1001,
      "一一一一一丑一一": 1002,
      "一乀一": 1003,
      "一一一乀一丠一一": 1004,
      "一一一一乀丄一一": 1005,
      "两一": 1006,
      "一一一丈一丁一一": 1007,
      "一一丑一一一一一": 1008,
      "一一一么一一一一": 1009,
      "一一一丄一丄一一": 1010,
      "一一丁一丠一一一": 1011,
      "一一一乂一一一一": 1012,
      "一一一亀一丠一一": 1013,
      "一一一一乀丈一一": 1014,
      "一亀丄一一一一一": 1015,
      "一一亀一一一丁一": 1016,
      "一丄丂": 1017,
      "一一一亠一一一一": 1018,
      "乀丈一一": 1019,
      "亀一一一一一": 1020,
      "一一一丠一一丁一": 1021,
      "一一一一一乂一一": 1022,
      "一一乀上": 1023,
      "一一一丂乀一一一": 1024,
      "一乀両": 1025,
      "丐丁一一": 1026,
      "一一亀一一一丐一": 1027,
      "丰一一": 1028,
      "一亀丒一一": 1029,
      "一一一丈一一丂一": 1030,
      "一乀丨": 1031,
      "一一一一一么一一": 1032,
      "一丠一一一丐一一": 1033,
      "一一一一一一一丐": 1034,
      "丆一": 1035,
      "一一一丒一": 1036,
      "一一乀一丐一一一": 1037,
      "一一一一一丢一一": 1038,
      "一亠丄一一": 1039,
      "一亀且一一": 1040,
      "丅一一一一一": 1041,
      "一一丁一亀一一一": 1042,
      "一一一一丠丂一一": 1043,
      "一一争": 1044,
      "一一七": 1045,
      "一一一一且一一一": 1046,
      "亠丂一一": 1047,
      "一丠丄": 1048,
      "一一亀一丈一一一": 1049,
      "丂亀一一一": 1050,
      "亀丒一一": 1051,
      "一一一一一亄一一": 1052,
      "乄丁一一": 1053,
      "一一一交": 1054,
      "一丄丂一一": 1055,
      "一亀丈": 1056,
      "一一乀一一一丄一": 1057,
      "一一丁一丐一一一": 1058,
      "一一一丄一丐一一": 1059,
      "一一一一一乐": 1060,
      "一乐丂一一": 1061,
      "一一一丁丠一一一": 1062,
      "一丠丄一一一一一": 1063,
      "一一一一习": 1064,
      "一一一丐一丂一一": 1065,
      "一一亁一": 1066,
      "一一一一乀三一一": 1067,
      "一一一一丠丄一一": 1068,
      "一一乀丅": 1069,
      "一一一丢一一一一": 1070,
      "一一一一亠丄一一": 1071,
      "丄一丁一一": 1072,
      "一一一一一一丅一": 1073,
      "一丠一一一一": 1074,
      "一乐一一一一一一": 1075,
      "丁一一丁一": 1076,
      "一一丐一丐一一一": 1077,
      "一一一一丈丄一一": 1078,
      "一一习一一一一一": 1079,
      "一一一丈一丈一一": 1080,
      "一一一乔": 1081,
      "一丠丂一": 1082,
      "丈丄": 1083,
      "一一一五": 1084,
      "不一一": 1085,
      "一亀一一一丁一一": 1086,
      "一一丰一一一一一": 1087,
      "一乀一一一丄一一": 1088,
      "一亀丒": 1089,
      "一一云": 1090,
      "一乀一一丐一一一": 1091,
      "一一一亁一一一一": 1092,
      "乀一一一一一": 1093,
      "一一一一一乄一一": 1094,
      "一乀丄一": 1095,
      "一一亩": 1096,
      "丘一一一": 1097,
      "一一一丰": 1098,
      "一一什一一一一一": 1099,
      "一一一丂丁一": 1100,
      "丰一一一": 1101,
      "一亀上一一": 1102,
      "一一一一丐丁一一": 1103,
      "一一一一亀丒一一": 1104,
      "丨丁一": 1105,
      "一一一丁一一丈一": 1106,
      "一一丄一丐一一一": 1107,
      "久一一": 1108,
      "一丈丁一": 1109,
      "一一一一乐丂一一": 1110,
      "一一一一两一一一": 1111,
      "一丠一一一丁一一": 1112,
      "一一丘一一一一一": 1113,
      "一一一一一亠": 1114,
      "一一一一乀上一一": 1115,
      "一一一丂一一丈一": 1116,
      "一乐一一": 1117,
      "一一一一一丈丁一": 1118,
      "一一一一一亐一一": 1119,
      "一一一一丠丅一一": 1120,
      "一乀丂一一一一一": 1121,
      "一一亀丁一一一一": 1122,
      "一丐一一一丂一一": 1123,
      "七一一一一": 1124,
      "一一一丈一一丈一": 1125,
      "争一一": 1126,
      "一乐丁一一": 1127,
      "一一丠一一一丐一": 1128,
      "一上": 1129,
      "一一一乀一丄一一": 1130,
      "一一一亂": 1131,
      "么丁一": 1132,
      "一一一丄丂": 1133,
      "一一丂一一亀一一": 1134,
      "一一丠一丈一一一": 1135,
      "一丒": 1136,
      "一一一一一予一一": 1137,
      "一一么丁": 1138,
      "一一丄一一一丁一": 1139,
      "一一一丈一一丁一": 1140,
      "一一一一一一丄丂": 1141,
      "乀上一一": 1142,
      "一一一丁一一丂一": 1143,
      "一一一亐一一一一": 1144,
      "么丂一一": 1145,
      "一丠一一亀一一一": 1146,
      "一一丁一一乀一一": 1147,
      "一一一丈一亀一一": 1148,
      "一丠一一丠一一一": 1149,
      "一乂": 1150,
      "亀上一一": 1151,
      "一亀么": 1152,
      "丂丠": 1153,
      "一一一一予一一一": 1154,
      "一一一丂一一丁一": 1155,
      "习一一": 1156,
      "一一亀一丐一一一": 1157,
      "一一一亀一一丁一": 1158,
      "乑一一": 1159,
      "乂一": 1160,
      "一亀丈一一一一一": 1161,
      "丁丁": 1162,
      "丕一": 1163,
      "一一丠丈一": 1164,
      "一丐一一一一": 1165,
      "一一一一亐丂一一": 1166,
      "一一丌一一一一一": 1167,
      "一一一丠一丄一一": 1168,
      "一么一一一": 1169,
      "一亀一一丄一一一": 1170,
      "亐丄一一": 1171,
      "一一一七一一一一": 1172,
      "一一丈一一一丂一": 1173,
      "一一一一一一一丠": 1174,
      "一丂丁一一一一一": 1175,
      "一一亠一一": 1176,
      "一丐丂一": 1177,
      "一亀乔": 1178,
      "一亀乄": 1179,
      "一一一一丐丂一一": 1180,
      "一一一一丨丁一一": 1181,
      "一一一丈一丠一一": 1182,
      "乀三一一": 1183,
      "一一一乄一一一一": 1184,
      "一一一一一丐丁一": 1185,
      "一一一一亀且一一": 1186,
      "一丠且": 1187,
      "一一一一一严一一": 1188,
      "一亀一一一丠一一": 1189,
      "乀一一一一一一一": 1190,
      "一一一丐一丐一一": 1191,
      "丂一一丂一": 1192,
      "一亀一一乀一一一": 1193,
      "两丁一一": 1194,
      "且一一一一": 1195,
      "一一丈一丈一一一": 1196,
      "一丐一一一丈一一": 1197,
      "业一一": 1198,
      "一一丄丁": 1199,
      "乐丁一一": 1200,
      "一一一一么丁一一": 1201,
      "一亀丠": 1202,
      "一一丈丂一": 1203,
      "一一一丑一": 1204,
      "一一一丨一": 1205,
      "一乀个": 1206,
      "丂乀": 1207,
      "亀且一一": 1208,
      "一一一一一丐丂一": 1209,
      "一一乀丐一": 1210,
      "一亀一一丐一一一": 1211,
      "下一一": 1212,
      "一丠一": 1213,
      "一一亀一一一丈一": 1214,
      "一一一一亀一": 1215,
      "一一丐丐一": 1216,
      "一一仐": 1217,
      "一一一亄一一一一": 1218,
      "一一一一一一上一": 1219,
      "一丁一一一": 1220,
      "一亐一一一": 1221,
      "一一丠丠一": 1222,
      "一一丁一一一丂一": 1223,
      "一亨": 1224,
      "一一丨一一": 1225,
      "一一一丁一一丠一": 1226,
      "丁一丈一一": 1227,
      "一一乀両": 1228,
      "一一一习": 1229,
      "一亀一一一一丁一": 1230,
      "一乀乀一": 1231,
      "一一丈丂一一一一": 1232,
      "亊一一": 1233,
      "一一一一一丠丁一": 1234,
      "一一亐丂一一一一": 1235,
      "一乀丂": 1236,
      "三一一一一": 1237,
      "一一丐丄一一一一": 1238,
      "一一一一亀上一一": 1239,
      "一一丐一一一丄一": 1240,
      "一一一两一": 1241,
      "丁乀": 1242,
      "乨一一一": 1243,
      "一丠丁一一一一一": 1244,
      "一一一丄丂一": 1245,
      "一一丠丅一一一一": 1246,
      "亐丂一": 1247,
      "一一丄丁一一一一": 1248,
      "丠丄一一": 1249,
      "一一亠一一一": 1250,
      "一丂丁": 1251,
      "一一丂一一一丄一": 1252,
      "一一一一一丠丂一": 1253,
      "一一么丁一一一一": 1254,
      "一一一一乀丅一一": 1255,
      "一亠丂一一": 1256,
      "一一亠丂一一一一": 1257,
      "一一乐丁一一一一": 1258,
      "一丐丂一一一一一": 1259,
      "一一乨": 1260,
      "一一亠丄": 1261,
      "一一乐一一一": 1262,
      "一一丆一一一一一": 1263,
      "一一乀一丄一一一": 1264,
      "一一一三一": 1265,
      "一丠一一一丂一一": 1266,
      "一一丈丅": 1267,
      "一一亀乀一一": 1268,
      "亀丠一一": 1269,
      "一丐一": 1270,
      "一一一一乀一": 1271,
      "一一亢": 1272,
      "丐丁一": 1273,
      "一一丁一一一丁一": 1274,
      "一一丨丁": 1275,
      "仐一一一": 1276,
      "一一亂一一一一一": 1277,
      "乐一": 1278,
      "一亀丐一": 1279,
      "一一一丆一一一一": 1280,
      "一一亨一一一一一": 1281,
      "一一丂一一一丂一": 1282,
      "一亀丈一": 1283,
      "一一一亨": 1284,
      "一乀三": 1285,
      "一一乀乀一": 1286,
      "一一亰": 1287,
      "一一井": 1288,
      "一一一一亠丂一一": 1289,
      "一丈一": 1290,
      "一一乐丂": 1291,
      "一一亀上": 1292,
      "一乀两": 1293,
      "什一一": 1294,
      "一乀一一一丐一一": 1295,
      "一一乀上一一一一": 1296,
      "一一交一一一一一": 1297,
      "一一丠丈一一一一": 1298,
      "一一乀丠一一": 1299,
      "丈一丂一一": 1300,
      "一一一丐一一丄一": 1301,
      "一乀丄": 1302,
      "世一一": 1303,
      "一乀丄一一一一一": 1304,
      "一一乀一丈一一一": 1305,
      "一乀一一一亀一一": 1306,
      "一乀一一亀一一一": 1307,
      "一乀丢": 1308,
      "一一乀丅一一一一": 1309,
      "丆一一一一": 1310,
      "一一丐丈一一": 1311,
      "一一丂一丈一一一": 1312,
      "一一亠丂一": 1313,
      "一一丐丄一": 1314,
      "丁亀": 1315,
      "一亀一一丈一一一": 1316,
      "一一一亀一乀一一": 1317,
      "一丰": 1318,
      "一亀一一一亀一一": 1319,
      "一一亐丂一": 1320,
      "丈丄一一": 1321,
      "一一一一一丩一一": 1322,
      "一丠丄一": 1323,
      "一一一乀丁一一一": 1324,
      "一丐丅一一": 1325,
      "一乀丂一": 1326,
      "一乀丈一": 1327,
      "一一一一丈丁一一": 1328,
      "丐丂一一": 1329,
      "一一丄一一一丈一": 1330,
      "一丨一一一一一一": 1331,
      "一丈一一一一": 1332,
      "一一丄一一一丄一": 1333,
      "一交": 1334,
      "一一一乀一一丂一": 1335,
      "丒一一一一": 1336,
      "一丐丄一一": 1337,
      "一予一一一": 1338,
      "一丠丁一": 1339,
      "一一一丠一丠一一": 1340,
      "一一一乀一丈一一": 1341,
      "一一丐丄": 1342,
      "丠丅一一": 1343,
      "一一乁一一一一一": 1344,
      "丂丂": 1345,
      "一一亀丠一": 1346,
      "一一一一丄丂一一": 1347,
      "一一一一一丕一一": 1348,
      "一亀乊": 1349,
      "丑一一一一": 1350,
      "一一一亁一": 1351,
      "一一一一一丆一一": 1352,
      "一一乐一一": 1353,
      "一一丐一丄一一一": 1354,
      "一一一丠丁": 1355,
      "一一一予一一一一": 1356,
      "丌一": 1357,
      "一一亀且一": 1358,
      "一一乔一一一一一": 1359,
      "一一一一一乊一一": 1360,
      "一一一一一七一一": 1361,
      "丄一一丁一": 1362,
      "一一一一一丠丄一": 1363,
      "一一一一乐丁一一": 1364,
      "一一乀一一一丠一": 1365,
      "一一丈丈一": 1366,
      "丐一丄一一": 1367,
      "一且一一一": 1368,
      "一一丠一一一丈一": 1369,
      "一一一一交一一一": 1370,
      "一一丄丄一": 1371,
      "一一一么一": 1372,
      "一一一丐一乀一一": 1373,
      "一一亐丂": 1374,
      "一一乒一一一一一": 1375,
      "丒丁一": 1376,
      "一一一丂丁一一一": 1377,
      "一一一丂一一丄一": 1378,
      "一一乐丁": 1379,
      "一一一丄一一丂一": 1380,
      "一一亥": 1381,
      "一一七一一一一一": 1382,
      "丐丈": 1383,
      "丨丂一一": 1384,
      "一丠上一一": 1385,
      "一一丄丁一": 1386,
      "一一一丐一一丂一": 1387,
      "一乀一一一乀一一": 1388,
      "一一一丠丁一一一": 1389,
      "一一丨一一一": 1390,
      "一一一一一乀丄一": 1391,
      "一乀且一一": 1392,
      "一一一一乄一一一": 1393,
      "一一一丁亀丂一一": 1394,
      "一一乀丐一一一一": 1395,
      "一一一一一丌一一": 1396,
      "一一一一亀丁一一": 1397,
      "一丐丂": 1398,
      "一一亀一乀丁一一": 1399,
      "一丈一一一丁一一": 1400,
      "一一丠丐一一": 1401,
      "一一丨丄": 1402,
      "一亀亀一": 1403,
      "一一亀且一一一一": 1404,
      "一一亀乂": 1405,
      "一一一一一一丈丄": 1406,
      "亐丈一一": 1407,
      "一乀丐": 1408,
      "一丐一一亀一一一": 1409,
      "一一乘": 1410,
      "一一一一一乀丂一": 1411,
      "一一乀丁一丈一一": 1412,
      "一丄一一一一": 1413,
      "一一丠丅一": 1414,
      "一一上丁": 1415,
      "一一一丐一一丁一": 1416,
      "一一一亀一丈一一": 1417,
      "一一亠丄一一一一": 1418,
      "一一乑": 1419,
      "个一": 1420,
      "一一一丌一一一一": 1421,
      "一一一丄一一丐一": 1422,
      "一丠一一丈一一一": 1423,
      "一一亠丄一": 1424,
      "一一亀上一": 1425,
      "一一亠一一丄一一": 1426,
      "一丠一一一乀一一": 1427,
      "一一一一一个一一": 1428,
      "一一丂丁一丂丁一": 1429,
      "一乀丐一一": 1430,
      "一一一丂乀": 1431,
      "么一": 1432,
      "一一一丂一一丐一": 1433,
      "一亀丠一一一一一": 1434,
      "一亀乒": 1435,
      "一一个一一一一一": 1436,
      "一一一丐一一丐一": 1437,
      "一一乀一亠一一一": 1438,
      "一一丈一一一丈一": 1439,
      "一一丄丂一丄丂一": 1440,
      "一一一一五一一一": 1441,
      "丠丈一一": 1442,
      "一一临": 1443,
      "一一乐丂一一一一": 1444,
      "一一乀三一一一一": 1445,
      "一一亀丂一丐一一": 1446,
      "一丠一一一丈一一": 1447,
      "一一乀上一": 1448,
      "一亐一一一一一一": 1449,
      "一一一一什一一一": 1450,
      "一一乂丁": 1451,
      "一乀一一丠一一一": 1452,
      "一丠丠一": 1453,
      "丨一一一一": 1454,
      "一丐一一乀一一一": 1455,
      "一一亁一一亁一一": 1456,
      "一丠丕": 1457,
      "亀乀": 1458,
      "一丐一一丐一一一": 1459,
      "一一亀上一一一一": 1460,
      "一一一一一丘一一": 1461,
      "丁一丂一一": 1462,
      "一一一一一一亀": 1463,
      "一一亀亀一": 1464,
      "一一一义": 1465,
      "一一丐上": 1466,
      "一一一丂一丅一一": 1467,
      "一么丁一一": 1468,
      "一丠丒": 1469,
      "乁一": 1470,
      "一一丈一一一丐一": 1471,
      "一一一一亨一一一": 1472,
      "一一丨丁一一一一": 1473,
      "一亠一一": 1474,
      "一一丩一一一一一": 1475,
      "一一丄一丄一一一": 1476,
      "一丢": 1477,
      "一一一丁一一丐一": 1478,
      "一一乐一一丂一一": 1479,
      "一亀一一一一丂一": 1480,
      "予一": 1481,
      "一一丒丁": 1482,
      "一乀乀": 1483,
      "一亀一一亀": 1484,
      "一亐丂一一": 1485,
      "一丠丑": 1486,
      "一丈一一一丄一一": 1487,
      "一一一一一一乀": 1488,
      "丄丂一一": 1489,
      "一乀上": 1490,
      "一一丁一一一丄一": 1491,
      "一丠丁": 1492,
      "一一丈丄一丈丄一": 1493,
      "严一": 1494,
      "一一丈丂": 1495,
      "什一一一": 1496,
      "丌一一一": 1497,
      "且丁一一": 1498,
      "一一丠一乐一一一": 1499,
      "一丠丂一一一一一": 1500,
      "乐丁一": 1501,
      "亀乄一一": 1502,
      "一一乀丁一丂一一": 1503,
      "一一亀丒一一一一": 1504,
      "一丠一一一丠一一": 1505,
      "一丠丈一一": 1506,
      "一一丐三": 1507,
      "一一一什": 1508,
      "一一一一一乀乀一": 1509,
      "一一一一一一且一": 1510,
      "一丈丂一一": 1511,
      "亢一一": 1512,
      "一亀乀一亀乀一一": 1513,
      "一一一丐丁": 1514,
      "一一一丂一丄丂一": 1515,
      "一一乐丂一": 1516,
      "一一且丂": 1517,
      "一一亀丠一一一一": 1518,
      "一一一一一丠丠一": 1519,
      "一一一一习一一一": 1520,
      "一亀上": 1521,
      "一一一乀丁": 1522,
      "一一业": 1523,
      "一一亀两": 1524,
      "一乀一一一一丁一": 1525,
      "一一一丈丄一": 1526,
      "一一亀丂一丄一一": 1527,
      "一一五一一一一一": 1528,
      "且丁一": 1529,
      "一亀丁一一一一一": 1530,
      "一乀一一丈一一一": 1531,
      "一一一丁一丂丁一": 1532,
      "一丠丠": 1533,
      "一一一一一亀丈一": 1534,
      "一丂一一一": 1535,
      "一亀亀": 1536,
      "一一乐丈": 1537,
      "一丐一一一丁一一": 1538,
      "一一亊": 1539,
      "一一一一一丰一一": 1540,
      "一一一丅一丠一一": 1541,
      "一一一丄一丈丄一": 1542,
      "一一一丩一一一一": 1543,
      "一一一乀一乀一一": 1544,
      "一乀严": 1545,
      "丂一一丁一": 1546,
      "一一乀一一一丐一": 1547,
      "一一一一一乀丈一": 1548,
      "一一丂一一一丈一": 1549,
      "一一亠一一丁一一": 1550,
      "一亀丠一一": 1551,
      "一乀丩": 1552,
      "一一互": 1553,
      "临一一一": 1554,
      "一亀丄一": 1555,
      "一乀丐一一一一一": 1556,
      "一一丠丈": 1557,
      "乀丢一一": 1558,
      "一一一亀一丐一一": 1559,
      "一一一互": 1560,
      "一一丕一一一一一": 1561,
      "一一丨丁一": 1562,
      "一一丨一一丁一一": 1563,
      "一丈丁一一一一一": 1564,
      "义一一": 1565,
      "一丠一一乀一一一": 1566,
      "一丨丁一一": 1567,
      "一一一一一乒一一": 1568,
      "一一一丘一一一一": 1569,
      "一一丠一丄一一一": 1570,
      "一一一丂一一乀一": 1571,
      "一一一一一丐丐一": 1572,
      "一一一丢一": 1573,
      "丘一": 1574,
      "乒丁一": 1575,
      "亩一一": 1576,
      "亠丈一一": 1577,
      "习一一一": 1578,
      "一乀一一乀": 1579,
      "一一一一亄一一一": 1580,
      "丠一丈一一": 1581,
      "一乔": 1582,
      "一一丐丈一丐丈一": 1583,
      "一一一丈丁": 1584,
      "一一丈一乐一一一": 1585,
      "一丐丐": 1586,
      "一一丐一一一丐一": 1587,
      "一丐丐一": 1588,
      "丢一一一一": 1589,
      "一丐上": 1590,
      "一一一両一": 1591,
      "一一丄丄": 1592,
      "一一一丄一上一一": 1593,
      "一一一丁丁": 1594,
      "亄一": 1595,
      "一一丁丁": 1596,
      "一一一一一乔一一": 1597,
      "一一一丐丈一": 1598,
      "一一一亅": 1599,
      "一一一丕一一一一": 1600,
      "一一乀丅一": 1601,
      "一一丠一乀丁一一": 1602,
      "一一亠丂": 1603,
      "一一一一一一丠": 1604,
      "一一一丅一丈一一": 1605,
      "一亁一一一一一一": 1606,
      "一一亁一一丁一一": 1607,
      "一丐一一一丠一一": 1608,
      "一一一一一一一": 1609,
      "一一亀一一亁一一": 1610,
      "一一一一一亀丄一": 1611,
      "一一丐一亠一一一": 1612,
      "一一亀丁": 1613,
      "一一丬": 1614,
      "乀丐一一": 1615,
      "一一乀一亀丂一一": 1616,
      "丈丁一": 1617,
      "一一一丠一一丈一": 1618,
      "一一一一丁一丂一": 1619,
      "一一一丈一丐丈一": 1620,
      "一一义": 1621,
      "一一丠丄一丁一一": 1622,
      "一一丠丁一一": 1623,
      "一一一丅亀一一一": 1624,
      "一丘": 1625,
      "一丄丁一": 1626,
      "一亀丨": 1627,
      "一一丨一一丠一一": 1628,
      "亠一": 1629,
      "一一乐一一乀一一": 1630,
      "一一亄丂一": 1631,
      "一一乊一一一一一": 1632,
      "一一亀丂乀一一一": 1633,
      "一丠丈": 1634,
      "乐丂一": 1635,
      "一一丂丁一丂一一": 1636,
      "两丂一": 1637,
      "一一一乐一": 1638,
      "一么一一": 1639,
      "一两一一一": 1640,
      "一一予丄": 1641,
      "一一丐丂亀一一一": 1642,
      "一亀且一一一一一": 1643,
      "一一乐一亀一一一": 1644,
      "一一亀丄乀一一一": 1645,
      "一一一一一亀亀一": 1646,
      "一乀丠一乀丠一一": 1647,
      "一一一亐一": 1648,
      "一丈丂一": 1649,
      "一一一丈丄": 1650,
      "一一一丐丁一一一": 1651,
      "一丐一一一丄一一": 1652,
      "一一一严一一一一": 1653,
      "一丠一一一亀一一": 1654,
      "一一乀一亀": 1655,
      "一一一一一丈丈一": 1656,
      "一一丈丄一一": 1657,
      "一一一一一习一一": 1658,
      "一一丁一丄一一一": 1659,
      "一一亀丒一": 1660,
      "一一丐一一一丠一": 1661,
      "一亠丐": 1662,
      "一一一丈一一丄一": 1663,
      "一一一一亐": 1664,
      "一一乀丈一丂一一": 1665,
      "一一丐一丨一一一": 1666,
      "丩一": 1667,
      "一一丄一一一丐一": 1668,
      "一一乀丈一一": 1669,
      "一一一三亀一一一": 1670,
      "一一丠丑": 1671,
      "一丐三": 1672,
      "一一乀亁": 1673,
      "一一一丈丁一一一": 1674,
      "一一亀丁一": 1675,
      "一一丄丂一丄一一": 1676,
      "一一一一一五一一": 1677,
      "临一一": 1678,
      "一丠丂": 1679,
      "一一一久": 1680,
      "一一一一丰一一一": 1681,
      "一一一丈乀一一一": 1682,
      "一一丄一一丅一一": 1683,
      "一一乀丐": 1684,
      "一一且丂一": 1685,
      "一一丠丁一丈一一": 1686,
      "一一亀一一丅一一": 1687,
      "一一一丁亀": 1688,
      "一一丢丁": 1689,
      "丠一一一一一一一": 1690,
      "一一两丂一": 1691,
      "一且一一一一一一": 1692,
      "亠丂一": 1693,
      "丂亀": 1694,
      "一一一丄一一丈一": 1695,
      "一一一上一丁一一": 1696,
      "么丄一": 1697,
      "一一一丠一亀一一": 1698,
      "一一一乄一": 1699,
      "一丐一一一丐一一": 1700,
      "一一亠一一亀一一": 1701,
      "一一久": 1702,
      "一一且一一丐一一": 1703,
      "一一一丠一一丄一": 1704,
      "一乄一一一": 1705,
      "一一一一亀丠一一": 1706,
      "一亀乀一亀一一一": 1707,
      "一一丈一一上一一": 1708,
      "一一一丄丠一一一": 1709,
      "一一乀丂丠一一一": 1710,
      "一一亐一一丄一一": 1711,
      "丠上一一": 1712,
      "一一且一亀一一一": 1713,
      "一一乀丂一丐一一": 1714,
      "一一乀丁丠一一一": 1715,
      "一一一丐亀一一一": 1716,
      "一一乀一亀乀一一": 1717,
      "一一一一一乁一一": 1718,
      "一一亀一一一乀一": 1719,
      "一一一乁一一一一": 1720,
      "一一一一一丨": 1721,
      "一一一一一亨一一": 1722,
      "一一一丐一丠丐一": 1723,
      "一一乀两": 1724,
      "亂一": 1725,
      "一一丂一亀丂一一": 1726,
      "亐丈一": 1727,
      "乘一一一": 1728,
      "一丄丁一一": 1729,
      "一丠丈一一一一一": 1730,
      "一一且丂一一一一": 1731,
      "一一丠丐一丠丐一": 1732,
      "一一一下": 1733,
      "亅一一": 1734,
      "一一一丠一一丂一": 1735,
      "一亂": 1736,
      "一一一一乀丐一一": 1737,
      "一一一丂乀丁一一": 1738,
      "一一丈一亀丂一一": 1739,
      "一一亀一一一丠一": 1740,
      "一一乐丁一": 1741,
      "一一三一一": 1742,
      "一一么丅": 1743,
      "一什一一一一一一": 1744,
      "一一丄丂一一": 1745,
      "一么一一一一一一": 1746,
      "一一一丄亀丂一一": 1747,
      "一一丐一一丅一一": 1748,
      "一一一一一亂一一": 1749,
      "一一亠一一丈一一": 1750,
      "一一丈丄一丈一一": 1751,
      "一丐丁一一一一一": 1752,
      "一丈丈": 1753,
      "一一丄一丨一一一": 1754,
      "一一亀乐": 1755,
      "乀丅一一": 1756,
      "一一乀丒": 1757,
      "一一上丁一一一一": 1758,
      "一一丈丁一一": 1759,
      "一一丐一亀丂一一": 1760,
      "一五": 1761,
      "一一一丒一丁一一": 1762,
      "一一丂丂一": 1763,
      "一一一上一丐一一": 1764,
      "一一一一一丄丄一": 1765,
      "一一一乒一一一一": 1766,
      "一丂丁一一": 1767,
      "一一丠丂一丁一一": 1768,
      "一一丠一一丅一一": 1769,
      "一丈一一乀一一一": 1770,
      "一一乐一一丄一一": 1771,
      "一乀乀一一一一一": 1772,
      "両丂一": 1773,
      "一一亀丐一丄一一": 1774,
      "一一一丰一一一一": 1775,
      "一一丠一乀": 1776,
      "一一亀乄": 1777,
      "一一丄一亠一一一": 1778,
      "一一么丁一": 1779,
      "一乐丄一一": 1780,
      "亰一一一": 1781,
      "一一丁一乀丁一一": 1782,
      "一一亐丈一": 1783,
      "一一一上一乀一一": 1784,
      "一一乀丄一丂一一": 1785,
      "一一一一么": 1786,
      "一一一一丘一一一": 1787,
      "一一一个一一一一": 1788,
      "一一严一一一一一": 1789,
      "一一乀一一丂丁一": 1790,
      "丂丂一": 1791,
      "一一丠且": 1792,
      "一一丈一乀丁一一": 1793,
      "一丈丁": 1794,
      "丠丂一": 1795,
      "一一一一一交一一": 1796,
      "丬一一": 1797,
      "一一丨一乀一一一": 1798,
      "一一一丄丂一一一": 1799,
      "一一丠一一一丠一": 1800,
      "一一丠丕": 1801,
      "一一丨丄一一一一": 1802,
      "一丅": 1803,
      "一一丈丁乀一一一": 1804,
      "一丠一一丐一一一": 1805,
      "一亀亀一一一一一": 1806,
      "一一丄一乀丁一一": 1807,
      "一一乀丁一丐一一": 1808,
      "一丠丠一一一一一": 1809,
      "一一么一一丂一一": 1810,
      "一一一一一什一一": 1811,
      "一丠丅": 1812,
      "一一一一一一丑一": 1813,
      "一乀一一丄一一一": 1814,
      "一一么丄": 1815,
      "一一一丅一一": 1816,
      "一一亅一一一一一": 1817,
      "一一一丁亠一一一": 1818,
      "一一亀一一丄丂一": 1819,
      "一一一一一丄丁一": 1820,
      "一一一一乔一一一": 1821,
      "一一一一一一丨一": 1822,
      "一亠丒": 1823,
      "一一丂丄一一一一": 1824,
      "一一一一一一丁丁": 1825,
      "一丈丈一": 1826,
      "一一一一丠丈一一": 1827,
      "一一丠一一亁一一": 1828,
      "一亀丁一一": 1829,
      "一一一亀丂一一一": 1830,
      "一一一一丠上一一": 1831,
      "丈丁一一": 1832,
      "一一亀丄一丠一一": 1833,
      "一一一一一亀丐一": 1834,
      "一一亄丂": 1835,
      "一一世": 1836,
      "交丂一": 1837,
      "一一丁一乐一一一": 1838,
      "一一丐丁亀一一一": 1839,
      "一亀一一一乀": 1840,
      "一一丄丈一一一一": 1841,
      "一一丐一一且一一": 1842,
      "一一一亀一一丄一": 1843,
      "一一一丠丐一": 1844,
      "一一丨一一丂一一": 1845,
      "一丐一一一乀一一": 1846,
      "一丠三一一": 1847,
      "一一一一一一三一": 1848,
      "一丐丐一一一一一": 1849,
      "一一一丠一一丠一": 1850,
      "一一亀丂一丁一一": 1851,
      "乊一": 1852,
      "一一丁丁一一一一": 1853,
      "一一一丈一一丠一": 1854,
      "一一乀丨": 1855,
      "一么丄一一": 1856,
      "一一丠三": 1857,
      "一一一丠一丁一一": 1858,
      "一一上丁一": 1859,
      "一一一一丁丐一一": 1860,
      "一一乀丁亀丂一一": 1861,
      "一一丂一亠一一一": 1862,
      "一一乀丢": 1863,
      "一一上一一丈一一": 1864,
      "一一丁丂一一一一": 1865,
      "一一一且一丂一一": 1866,
      "一乀丠一乀一一一": 1867,
      "一一丐丂一丐一一": 1868,
      "一一仠": 1869,
      "一一丁丁一": 1870,
      "一一亠丐一": 1871,
      "一一丠一一上一一": 1872,
      "一一丈一一一丠一": 1873,
      "一亀一一一一丄一": 1874,
      "丄丁一": 1875,
      "一一乀丁一一丁一": 1876,
      "一一一丂一一丠一": 1877,
      "一一乀丁亀一一一": 1878,
      "一一一丈一且一一": 1879,
      "一一乀亂": 1880,
      "一一乀三一": 1881,
      "一一一丁一上一一": 1882,
      "一一一丅乀一一一": 1883,
      "一一亀丠": 1884,
      "一一一丈一丅一一": 1885,
      "一一丠丁丐一一一": 1886,
      "一一一一一一丐丈": 1887,
      "一一一亀一亀一一": 1888,
      "一乀一一一一丄一": 1889,
      "一丠丐一丠丐一一": 1890,
      "一丄一一亀一一一": 1891,
      "一一丠乁": 1892,
      "一一一世": 1893,
      "亡一一": 1894,
      "一亀一一一一丈一": 1895,
      "一一丄丄一一一一": 1896,
      "一一丠丄一丠一一": 1897,
      "一一一一丐丅一一": 1898,
      "乂丄一": 1899,
      "亠丄一": 1900,
      "一一一丄一一丠一": 1901,
      "一一一乊一一一一": 1902,
      "一一一丁一丈丄一": 1903,
      "一一一丅一丂一一": 1904,
      "亀丢一一": 1905,
      "一乀上一一一一一": 1906,
      "一一亠丐": 1907,
      "一一丈丈": 1908,
      "一一丠一乀丠一一": 1909,
      "一乀一一一一丂一": 1910,
      "一一丠丄一一": 1911,
      "一亀上一一一一一": 1912,
      "一一亀一乀丄一一": 1913,
      "一一一一一一丄": 1914,
      "一一乀一一上一一": 1915,
      "一一一丂丐一一一": 1916,
      "一一一一丁丠一一": 1917,
      "一一亀丈一丄一一": 1918,
      "一一亠一乀丁一一": 1919,
      "一一一亊": 1920,
      "乄丁一": 1921,
      "一一丁一一一丈一": 1922,
      "一一亀么": 1923,
      "一丈一一丠一一一": 1924,
      "上丁一": 1925,
      "一丈一一丈一一一": 1926,
      "一一一一丁亀一一": 1927,
      "一一一丠一乀丠一": 1928,
      "一一两一一丁一一": 1929,
      "一一一丂丂": 1930,
      "一一亀丂一丠一一": 1931,
      "一一且一一丁一一": 1932,
      "一一丨丄一": 1933,
      "一一丈丁一丈一一": 1934,
      "一丄一一一丂一一": 1935,
      "一一一丁亀丈一一": 1936,
      "一亀乂一一一一一": 1937,
      "一丈一一一丐一一": 1938,
      "一一丂一乐一一一": 1939,
      "一一亀丂丠一一一": 1940,
      "一一亀丂一丅一一": 1941,
      "一一一一一丈丂一": 1942,
      "一一丂丂一一一一": 1943,
      "一一买": 1944,
      "一亀丨一一": 1945,
      "一丐丄一": 1946,
      "一一乄丂": 1947,
      "一一亠一丐一一一": 1948,
      "一丐一一丠一一一": 1949,
      "一一丐丁一一": 1950,
      "一一一上亀一一一": 1951,
      "一一丈丐一一一一": 1952,
      "一一乐三": 1953,
      "一一乐丈一一一一": 1954,
      "一一仈": 1955,
      "一一亀丐一一": 1956,
      "一亀一一亠一一一": 1957,
      "一一丐丈一丐一一": 1958,
      "一一丂丁一一": 1959,
      "且一一一一一": 1960,
      "一一丐一亀乀一一": 1961,
      "万一一": 1962,
      "一一丄丂一丁一一": 1963,
      "一一一一乀且一一": 1964,
      "一一亀一乀": 1965,
      "一一丐丐一一一一": 1966,
      "一一一一予丂一一": 1967,
      "一丐丄": 1968,
      "一一丨丅": 1969,
      "一一一争": 1970,
      "一一丐丂一一": 1971,
      "一一不": 1972,
      "一一两丂": 1973,
      "一丠一一一一丂一": 1974,
      "一一丈丈一一一一": 1975,
      "一一丠丒": 1976,
      "一一乀丈一乀一一": 1977,
      "一一且一丠一一一": 1978,
      "一一丐丂一丁一一": 1979,
      "一一亠一乀一一一": 1980,
      "一一丁一一一丐一": 1981,
      "乐丄一一": 1982,
      "一一一乑": 1983,
      "一一丠丄一丂一一": 1984,
      "一亀两": 1985,
      "一亀一丁一一一一": 1986,
      "一一乐一一丈一一": 1987,
      "一一丂丁一丈一一": 1988,
      "一丈丅": 1989,
      "丰一": 1990,
      "一一一乀丂一一一": 1991,
      "一一丂丁亀一一一": 1992,
      "一一亁一一丄一一": 1993,
      "一一丂丂": 1994,
      "一一一一一乐丁一": 1995,
      "一亀丢": 1996,
      "丐丂一": 1997,
      "一乀丅": 1998,
      "一両": 1999,
      "一一一不": 2000,
      "丐丅一一": 2001,
      "一一亠一一丐一一": 2002,
      "一一亀一乐一一一": 2003,
      "一一予一乀一一一": 2004,
      "一一交丂一": 2005,
      "一一丈丄一丂一一": 2006,
      "一一一丈丁一": 2007,
      "一一一一一丨丁一": 2008,
      "一丈一一一丂一一": 2009,
      "一一丠一一一乀一": 2010,
      "一一一两一丂一一": 2011,
      "七一一一": 2012,
      "一一一一一亀丁一": 2013,
      "一一乀丠一乀丠一": 2014,
      "一一亐上": 2015,
      "一丐丁": 2016,
      "一一一乀丁一": 2017,
      "乨一一": 2018,
      "一一丠丠一一一一": 2019,
      "一一一一一么丁一": 2020,
      "一亀一一乀": 2021,
      "一一乀一丠丂一一": 2022,
      "一丠一一一一丁一": 2023,
      "一亀丒一一一一一": 2024,
      "一一亄一一丄一一": 2025,
      "一丐丄一一一一一": 2026,
      "丠丑一一": 2027,
      "乕一一": 2028,
      "一一么丄一": 2029,
      "一一一一一丂丂一": 2030,
      "一一一両一丈一一": 2031,
      "一乐丈": 2032,
      "一一丨一一丄一一": 2033,
      "一一一上一一": 2034,
      "一亄一一一一一一": 2035,
      "一一丨一一亀一一": 2036,
      "一乀一一乐一一一": 2037,
      "一丈一一一丈一一": 2038,
      "一一一一丨": 2039,
      "一一丈一乀": 2040,
      "一一一丠丁一": 2041,
      "一一一丂一丑一一": 2042,
      "一丐一一丄一一一": 2043,
      "亨丂一一": 2044,
      "一一乐一亠一一一": 2045,
      "一一一亂一一一一": 2046,
      "乔一": 2047,
      "一一丠丂一一": 2048,
      "亐一": 2049,
      "一一亄一丠一一一": 2050,
      "一一亀丄一一": 2051,
      "一一乤": 2052,
      "両一一一一": 2053,
      "一丈一一亀一一一": 2054,
      "七一一一一一": 2055,
      "一一丈丁亀一一一": 2056,
      "一一一乀一一丐一": 2057,
      "一习一一一一一一": 2058,
      "一一丂一一一丐一": 2059,
      "丠三一一": 2060,
      "一一且一一乀一一": 2061,
      "一丈丈一一一一一": 2062,
      "一一丠一一丨一一": 2063,
      "一一一丂亀": 2064,
      "一一一上一丄一一": 2065,
      "一一丄丂一丐一一": 2066,
      "一一乂丁一": 2067,
      "一一乀丁一丠一一": 2068,
      "一一一丄一一亀一": 2069,
      "一一一丁乀": 2070,
      "丨丂一": 2071,
      "一一一一丠三一一": 2072,
      "一乀両一一一一一": 2073,
      "一一亠丄一一": 2074,
      "一仐": 2075,
      "一丠丕一一": 2076,
      "一一丨一一丈一一": 2077,
      "一一乀丈一丄一一": 2078,
      "一一两一一": 2079,
      "一一一一丐丄一一": 2080,
      "一亀乀一一丂一一": 2081,
      "一一一习一一一一": 2082,
      "一亐一一": 2083,
      "予丂一": 2084,
      "一一一且一丠一一": 2085,
      "一一一丂一丐丈一": 2086,
      "一一乐一一丐一一": 2087,
      "么丅一": 2088,
      "互一一": 2089,
      "一一一丬": 2090,
      "一一一丁丈一一一": 2091,
      "一乒": 2092,
      "一一乀丁丐一一一": 2093,
      "一一丐丅": 2094,
      "一亐上": 2095,
      "一一一乀一丂一一": 2096,
      "一一一丅一上一一": 2097,
      "一一一一一一丈": 2098,
      "乂丁一": 2099,
      "一一乀丑": 2100,
      "一一一且一亀一一": 2101,
      "一一乂丁一一一一": 2102,
      "一丂一一一一": 2103,
      "一一一业": 2104,
      "一一乐一一一丁一": 2105,
      "一一一丐一一丈一": 2106,
      "一一亁一乀一一一": 2107,
      "一三": 2108,
      "丁丁一": 2109,
      "一一乀严": 2110,
      "一一乀一一且一一": 2111,
      "一一丅一一丄一一": 2112,
      "与一一": 2113,
      "一丠丐一丠一一一": 2114,
      "一一乐上": 2115,
      "一一丐丐": 2116,
      "一一一且一丁一一": 2117,
      "一一一一一一丢一": 2118,
      "一一一且一一": 2119,
      "一一亡一一一一一": 2120,
      "一一且一一丂一一": 2121,
      "一一一一丠一": 2122,
      "一一一亡": 2123,
      "一一仄": 2124,
      "一一一一乄丁一一": 2125,
      "一一乐丈一": 2126,
      "一亠丈一一": 2127,
      "亐上一一": 2128,
      "一一一一一丐丄一": 2129,
      "一一乀个": 2130,
      "一一乀一一一乀一": 2131,
      "一一丠丑一": 2132,
      "一一亀丂一一丂一": 2133,
      "一一一丈一一丐一": 2134,
      "一一一丐一上一一": 2135,
      "一一一丑一丈一一": 2136,
      "亀丂": 2137,
      "一一亠丐一一一一": 2138,
      "一一一一亐丄一一": 2139,
      "一一丐一亀": 2140,
      "一一一丁一一乀一": 2141,
      "一一一一亀丆一一": 2142,
      "两丂一一": 2143,
      "乀丠": 2144,
      "丌一一一一": 2145,
      "一亄一一一": 2146,
      "一一丐丠一一一一": 2147,
      "一一乀乀一一一一": 2148,
      "一一乐一丠一一一": 2149,
      "一一亄丂一一一一": 2150,
      "一乀丠一一丁一一": 2151,
      "一一丐丈一丄一一": 2152,
      "一一上一一丠一一": 2153,
      "一一丂一一一丠一": 2154,
      "一一丸": 2155,
      "一两丂一": 2156,
      "乘一一": 2157,
      "一丐一一一一丁一": 2158,
      "一乐三": 2159,
      "一一一乔一一一一": 2160,
      "个丁一": 2161,
      "一一一一么丂一一": 2162,
      "一一一交一一一一": 2163,
      "一一乒丁": 2164,
      "一一一丨一丄一一": 2165,
      "一一丈一乀丠一一": 2166,
      "一丠且一一": 2167,
      "一一一予一": 2168,
      "一一亀一一且一一": 2169,
      "一乀丒": 2170,
      "一一一一丁乀一一": 2171,
      "一一一云": 2172,
      "一一丠一丐丁一一": 2173,
      "一一且一一丄一一": 2174,
      "一丈一一一丠一一": 2175,
      "一一丠丐一丠一一": 2176,
      "一一一一亀丨一一": 2177,
      "乒一": 2178,
      "一一一一一一丂丂": 2179,
      "一一丐一一一乀一": 2180,
      "一一亀丈一一": 2181,
      "一一上一乀一一一": 2182,
      "一丄丄": 2183,
      "一一一乀一一丁一": 2184,
      "丈丈一": 2185,
      "一一一一乀七一一": 2186,
      "一一丒一亀一一一": 2187,
      "一一丐一丠丐一一": 2188,
      "一一亀丐一亀一一": 2189,
      "一丌": 2190,
      "一一亠一一丠一一": 2191,
      "一一一乂一": 2192,
      "一一一一乀丒一一": 2193,
      "一一丈丄一丠一一": 2194,
      "一一一一一且": 2195,
      "一一丈一一丈丄一": 2196,
      "一一丁一丨一一一": 2197,
      "一一一一一一丒一": 2198,
      "一一丨一乐一一一": 2199,
      "一一一丄丁": 2200,
      "一丠一一丄一一一": 2201,
      "一一上一亀一一一": 2202,
      "一一一一一什": 2203,
      "亄丂一一": 2204,
      "交丂一一": 2205,
      "一一丒一一": 2206,
      "一一二": 2207,
      "一上一一一一一一": 2208,
      "一一一丐丂一": 2209,
      "一一串": 2210,
      "一一丠丅一一": 2211,
      "一一一一亠丁一一": 2212,
      "一一丐一一丐丈一": 2213,
      "一一一三一乀一一": 2214,
      "一亨一一一": 2215,
      "亀乀一": 2216,
      "一亀乀一一丐一一": 2217,
      "一亀乐一一一一一": 2218,
      "一乀丐一": 2219,
      "一丂一": 2220,
      "一一两一一丠一一": 2221,
      "一一一丄亀": 2222,
      "一一乀乁": 2223,
      "一一亀丢": 2224,
      "一一丠且一": 2225,
      "一丠丑一一": 2226,
      "一丐一一一亀一一": 2227,
      "一一亁一一丠一一": 2228,
      "一予一一一一一一": 2229,
      "一一东": 2230,
      "丄丄一": 2231,
      "一一一五一一一一": 2232,
      "一一丄一一一丠一": 2233,
      "丐丄一一": 2234,
      "一一亄一乀一一一": 2235,
      "一一乄一丠一一一": 2236,
      "一丄丄一": 2237,
      "一一一一一亠丂一": 2238,
      "一一一一一丁丁一": 2239,
      "一一一乀丂": 2240,
      "一一丈一一乐一一": 2241,
      "一一一一一亐": 2242,
      "一丄一": 2243,
      "一一一丐丈": 2244,
      "一一一丄乀": 2245,
      "亄丈一": 2246,
      "井一一": 2247,
      "一乀亀一一一一一": 2248,
      "丁丂一": 2249,
      "丆一一一一一": 2250,
      "一一一一一一乐一": 2251,
      "一一亐丈": 2252,
      "一一一丄一丢一一": 2253,
      "一一一一一一両一": 2254,
      "一一亐一丈一一一": 2255,
      "一一么一一乀一一": 2256,
      "一丐丈一丐丈一一": 2257,
      "一一亠一一一丂一": 2258,
      "一两一一一一一一": 2259,
      "一丠丅一一一一一": 2260,
      "一一上一一丁一一": 2261,
      "一一乂一一丂一一": 2262,
      "丐丐一": 2263,
      "亪一一": 2264,
      "一一丈丅一一一一": 2265,
      "一一丠丠": 2266,
      "一一一丂一且一一": 2267,
      "一一丐上一": 2268,
      "一一丐一一亠一一": 2269,
      "一一乄丂一": 2270,
      "一一亨丄": 2271,
      "一亀一一丨一一一": 2272,
      "一一一乀一亀乀一": 2273,
      "一一一一一一七一": 2274,
      "一一一一一一丐": 2275,
      "一一下": 2276,
      "一一一一一亐丂一": 2277,
      "一一亠乀一": 2278,
      "一一丈一且一一一": 2279,
      "一一一一两丁一一": 2280,
      "一乀丑": 2281,
      "一一乐丂一一": 2282,
      "亀丂一": 2283,
      "一一乀丩": 2284,
      "一一亀丐一丈一一": 2285,
      "一一一丕一": 2286,
      "一一乐一丈一一一": 2287,
      "一一丒一一丐一一": 2288,
      "一一丈一一丨一一": 2289,
      "一一乀一丨一一一": 2290,
      "一丄丄一一一一一": 2291,
      "一乀丠一一丈一一": 2292,
      "一亀乀一丠一一一": 2293,
      "一一乔丂": 2294,
      "一一亀亀": 2295,
      "一一丐一予一一一": 2296,
      "一乀丅一一一一一": 2297,
      "一一丠丒一": 2298,
      "一一丄一一丄丂一": 2299,
      "一一乊丁": 2300,
      "一一丄一一且一一": 2301,
      "乀丠一": 2302,
      "一一一一仐一一一": 2303,
      "一一丁一么一一一": 2304,
      "丐一一一一一一一": 2305,
      "一丠丈一": 2306,
      "一一一丈亀": 2307,
      "丠丁一": 2308,
      "一一一一一乐丂一": 2309,
      "丬一一一": 2310,
      "一一丠一一丠丐一": 2311,
      "一一丂一一上一一": 2312,
      "一一亀亀一一一一": 2313,
      "一一亀亂": 2314,
      "一乨": 2315,
      "一一丂丁一乀一一": 2316,
      "一一一丁一一亀一": 2317,
      "东一一": 2318,
      "一丠丠一一": 2319,
      "一乀丑一一": 2320,
      "一一丠上一": 2321,
      "一乀三一一一一一": 2322,
      "一一丄一一丨一一": 2323,
      "一一上一一丂一一": 2324,
      "一一亠丒": 2325,
      "一么丄一": 2326,
      "一一个丁": 2327,
      "一一一乀一一丈一": 2328,
      "一一一一乨一一一": 2329,
      "一一乢": 2330,
      "一一一丐一丨一一": 2331,
      "一一丄一一丐丈一": 2332,
      "一一一乘": 2333,
      "一一丙": 2334,
      "一一一一予": 2335,
      "什丂一一": 2336,
      "一一一且一丈一一": 2337,
      "一一丨一丐一一一": 2338,
      "一乀丒一一": 2339,
      "一一乀丁一乀一一": 2340,
      "一一一一一不一一": 2341,
      "一一一一一丠丈一": 2342,
      "一乀丨一一一一一": 2343,
      "一亠且": 2344,
      "一一一丐丂一一一": 2345,
      "一一一乀一一丄一": 2346,
      "一一一一丐一": 2347,
      "一一丨一一乀一一": 2348,
      "一一丈一一丠丐一": 2349,
      "一一乀丂一一": 2350,
      "一一亀乀一亀乀一": 2351,
      "一一一丄一丠丐一": 2352,
      "一丒丁一": 2353,
      "一一丠一一乀丁一": 2354,
      "一一且一一丠一一": 2355,
      "一一乒丁一": 2356,
      "一一一么一丄一一": 2357,
      "一丈丅一一": 2358,
      "一一一么丁": 2359,
      "一一一亢": 2360,
      "一一一一丈丂一一": 2361,
      "习一": 2362,
      "一一丠一一丈丄一": 2363,
      "一亠丐一一一一一": 2364,
      "一一丅一一丐一一": 2365,
      "一亠丄": 2366,
      "一一一一丁一丁一": 2367,
      "么丅一一": 2368,
      "乔丁一一": 2369,
      "亀一丁一": 2370,
      "一交一一一": 2371,
      "亰一一": 2372,
      "云一一": 2373,
      "一一一上一且一一": 2374,
      "一一予一一": 2375,
      "一一亠一丈一一一": 2376,
      "一一丐一一丄丂一": 2377,
      "一丐一一丈一一一": 2378,
      "一一丄一一亠一一": 2379,
      "一一亐一一亀一一": 2380,
      "一一乀一一乐一一": 2381,
      "一一亀一丄一一一": 2382,
      "一丈丂一一一一一": 2383,
      "亨丄一一": 2384,
      "一一一丅亀丈一一": 2385,
      "一一丄一一一乀一": 2386,
      "一一乐丁一一": 2387,
      "一一一亀一丄一一": 2388,
      "一一丠丐一丈一一": 2389,
      "一一一临": 2390,
      "一一丄一么一一一": 2391,
      "一亀丠一": 2392,
      "仐一一": 2393,
      "一一一一丌一一一": 2394,
      "一乁": 2395,
      "一一一丄一一乀一": 2396,
      "一一丐丈一乀一一": 2397,
      "一丄一一一丈一一": 2398,
      "一丰一一一一一一": 2399,
      "一一丐一一乐一一": 2400,
      "一一一丠丂一一一": 2401,
      "一丐上一一": 2402,
      "亠丁一一": 2403,
      "一一一丐丁一": 2404,
      "一乊": 2405,
      "一一丐上一一一一": 2406,
      "一一乄丁": 2407,
      "一一亀丂乀丄一一": 2408,
      "一一丁一一丅一一": 2409,
      "一丄一一丠一一一": 2410,
      "一一乀七": 2411,
      "一亀乔一一": 2412,
      "一丈一一一亀一一": 2413,
      "一一乀丢一": 2414,
      "一一一一一丁丂一": 2415,
      "一一一丨一丂一一": 2416,
      "一一一丅一乀一一": 2417,
      "一一丂一一丈丄一": 2418,
      "一一丈丅一": 2419,
      "一一乀両一一一一": 2420,
      "一一上一丐一一一": 2421,
      "一一乀且": 2422,
      "一丠三": 2423,
      "亀乀一一一一一一": 2424,
      "一乀个一一": 2425,
      "一一丨丁一一": 2426,
      "一一亀一一丨一一": 2427,
      "亄丂一": 2428,
      "一亰": 2429,
      "一一丈一一乀丁一": 2430,
      "一一一一亀一丁一": 2431,
      "一一乆": 2432,
      "一一丄丂亀一一一": 2433,
      "乐丄一": 2434,
      "一一両一一": 2435,
      "一一丐一亠丄一一": 2436,
      "一一丂一一乐一一": 2437,
      "一丐丐一一": 2438,
      "一亀乀一一乀一一": 2439,
      "丁丠一一": 2440,
      "一一一乂一丐一一": 2441,
      "一丈丈一一": 2442,
      "一一乂一丐一一一": 2443,
      "一一丈一一丂丁一": 2444,
      "专一一": 2445,
      "不一": 2446,
      "一一三一一丈一一": 2447,
      "一一一丄乀丁一一": 2448,
      "一亀亀一一": 2449,
      "丂丄一": 2450,
      "一一丈丁一丠一一": 2451,
      "一一一一丂一丄一": 2452,
      "丠丠一": 2453,
      "一丈一一丐一一一": 2454,
      "一丁一": 2455,
      "一丠丐一一丄一一": 2456,
      "一五一一一": 2457,
      "一一亀乊": 2458,
      "一一丈丄一丁一一": 2459,
      "一一乐一一亀一一": 2460,
      "一一一一一一丆一": 2461,
      "一乀丠一一丠一一": 2462,
      "一亠丁一一": 2463,
      "一丐丈一丐一一一": 2464,
      "一一乀一一丐丈一": 2465,
      "一一亀丨": 2466,
      "一一亠丂一一": 2467,
      "一一一丄丁一一一": 2468,
      "一一乀丠一乀一一": 2469,
      "一一丐一亀丄一一": 2470,
      "丘一一一一": 2471,
      "一一乀乀": 2472,
      "一一一上一丑一一": 2473,
      "一亀丂一一丂一一": 2474,
      "一一丐丂一乀一一": 2475,
      "一一上一一丐一一": 2476,
      "一一丂一一丂丁一": 2477,
      "一一一一一丂丄一": 2478,
      "一亀丁": 2479,
      "一一乀丁一一丄一": 2480,
      "一一一両一一丁一": 2481,
      "一一亠丁一一一一": 2482,
      "丄亀一一一": 2483,
      "丈一丁一一": 2484,
      "一一両一一丁一一": 2485,
      "一丠一一一一丈一": 2486,
      "一一一丐一一乀一": 2487,
      "一一一丨一乀一一": 2488,
      "一一一丅一一丄一": 2489,
      "丸一一": 2490,
      "一一丈一乐丂一一": 2491,
      "乂一一一一": 2492,
      "一一乀一一乀丠一": 2493,
      "一乀一一一一丐一": 2494,
      "一一一一亠丈一一": 2495,
      "一丄一一一丄一一": 2496,
      "一丠一一丨一一一": 2497,
      "一一丐一一乀丠一": 2498,
      "一一丈一乀丂一一": 2499,
      "一一丠一乀三一一": 2500,
      "一亀丢一一": 2501,
      "一一一丣": 2502,
      "一一一丢一丐一一": 2503,
      "一一丅一亀一一一": 2504,
      "一丠丐一亀一一一": 2505,
      "两丁一": 2506,
      "一丄一一一丁一一": 2507,
      "一丨丄": 2508,
      "一一丠一么一一一": 2509,
      "一一丢丁一": 2510,
      "一一乀一一丈丄一": 2511,
      "一一一丈亀丂一一": 2512,
      "一一一一乀亀一一": 2513,
      "一一仐一一一一一": 2514,
      "一丈一一一乀一一": 2515,
      "万一": 2516,
      "一一乀一一一亀一": 2517,
      "丢丁一": 2518,
      "一一丈一一一乀一": 2519,
      "一一丐一丠丅一一": 2520,
      "一一亄一一丐一一": 2521,
      "一一丄一丠丐一一": 2522,
      "乀且一一": 2523,
      "一一一亀一一丠一": 2524,
      "一一一一一习": 2525,
      "一一丂一且一一一": 2526,
      "一一丠一一丄丂一": 2527,
      "一一一乀一一乀一": 2528,
      "一一一乨": 2529,
      "一一一一一一两一": 2530,
      "一一丠乀一一一一": 2531,
      "一一一丈一乄一一": 2532,
      "一一亐一一": 2533,
      "久一": 2534,
      "一一丄丂一亀一一": 2535,
      "一一一丈一一乀一": 2536,
      "丣一一": 2537,
      "一一一丂亠一一一": 2538,
      "一一丂一一且一一": 2539,
      "一个": 2540,
      "一一一丠一且一一": 2541,
      "一一乂一丠一一一": 2542,
      "一一一一一乀丅一": 2543,
      "一一一丁一丨一一": 2544,
      "一一丐丈一丂一一": 2545,
      "一一乀一亠丄一一": 2546,
      "一一丠一乀上一一": 2547,
      "一一亀乔": 2548,
      "一一且一丨一一一": 2549,
      "乀丁一": 2550,
      "一一一一一一丄丄": 2551,
      "一一一一丄一": 2552,
      "乔丂一": 2553,
      "一一一乀丠一": 2554,
      "一一一一一乑一一": 2555,
      "一一一一一一亠一": 2556,
      "一一乨一一一一一": 2557,
      "一一予丄一": 2558,
      "一一亁一一亀一一": 2559,
      "一一一一丈一": 2560,
      "一一一一一么": 2561,
      "一一一丨一一丁一": 2562,
      "一一乄一一": 2563,
      "么丄一一": 2564,
      "乀丁": 2565,
      "一一一一亀两一一": 2566,
      "一乀乀一一": 2567,
      "一丂一一一丁一一": 2568,
      "一一一亨一一一一": 2569,
      "一一丅一丈一一一": 2570,
      "一亀一一一一丠一": 2571,
      "一一丂一亐一一一": 2572,
      "乀丑一一": 2573,
      "一一乀丁丠丂一一": 2574,
      "一一与": 2575,
      "一一一丐丂": 2576,
      "一一乀七一一一一": 2577,
      "一一丈丄乀一一一": 2578,
      "一一一一一一乄一": 2579,
      "一一五丂一": 2580,
      "一乀丠一丐一一一": 2581,
      "一丐一一一一丄一": 2582,
      "一一丠上": 2583,
      "一仠": 2584,
      "一一一一一丠丅一": 2585,
      "一丂一一乀一一一": 2586,
      "一一一亀丂": 2587,
      "亀丨一一": 2588,
      "一亀一一亀丂一一": 2589,
      "一丁一一一一": 2590,
      "一丨一一": 2591,
      "习丁一一": 2592,
      "一且一一": 2593,
      "一一一一乀丑一一": 2594,
      "一一一一一上": 2595,
      "一一乀一一亀丂一": 2596,
      "一一丄一丠丁一一": 2597,
      "一丠且一一一一一": 2598,
      "一一亪": 2599,
      "一一丁一一丄丂一": 2600,
      "一丂丂一": 2601,
      "一一丐一一亀丂一": 2602,
      "一一丠丁一一丁一": 2603,
      "一一丈一亐丂一一": 2604,
      "一一亄一一": 2605,
      "一乀且": 2606,
      "一一丠一乐丂一一": 2607,
      "丅丂一": 2608,
      "丠丐": 2609,
      "一一丐一一丂丁一": 2610,
      "一一一丨丁": 2611,
      "一一丈一丐丈一一": 2612,
      "一一一一亀亀一一": 2613,
      "一一丅一一丁一一": 2614,
      "乀丒一一": 2615,
      "一一一丨丁一一一": 2616,
      "一一丠一亀丂一一": 2617,
      "一一一丒一亀一一": 2618,
      "一一乀丄一一": 2619,
      "一一丁一一丨一一": 2620,
      "一一亐一一丈一一": 2621,
      "一一一一一乀丐一": 2622,
      "一一亀一乀三一一": 2623,
      "一丈丂": 2624,
      "一一一丁丁一一一": 2625,
      "万一一一一": 2626,
      "一一丠丁一丐一一": 2627,
      "一乐丈一一": 2628,
      "一丑": 2629,
      "一一一丠丂": 2630,
      "一丠丐一一丐一一": 2631,
      "一一一両一丐一一": 2632,
      "一一丐一乀丁一一": 2633,
      "一一丐丈亀一一一": 2634,
      "一一亀一一丐丈一": 2635,
      "一一两一一丂一一": 2636,
      "买一一": 2637,
      "一一临一一一一一": 2638,
      "一一丠一一亠一一": 2639,
      "一一丠丄乀一一一": 2640,
      "一一乀丈亀一一一": 2641,
      "一一一一乀乀一一": 2642,
      "一一么一一丄一一": 2643,
      "一一丄一乐一一一": 2644,
      "一一一什一一一一": 2645,
      "一一丈一一丅一一": 2646,
      "一一一一一业一一": 2647,
      "一一亀丂一亀一一": 2648,
      "一一亀乒": 2649,
      "一一丢一丐一一一": 2650,
      "一一一一丰": 2651,
      "一一丠丄一亀一一": 2652,
      "一一亀丆": 2653,
      "一一丐丂一丄一一": 2654,
      "一一丄丂丠一一一": 2655,
      "一一丄一丨丁一一": 2656,
      "下一": 2657,
      "一一一一丁一丈一": 2658,
      "一一丈丁一丂一一": 2659,
      "一一丒丁一": 2660,
      "一一丄一一亁一一": 2661,
      "一一一丂亀丂一一": 2662,
      "一一丈一亠一一一": 2663,
      "一一一一乐丄一一": 2664,
      "一一一丠一一丐一": 2665,
      "一一一么丁一一一": 2666,
      "一一一一一亠丄一": 2667,
      "一一且丁": 2668,
      "一丄一一丐一一一": 2669,
      "一一一一丂丠一一": 2670,
      "一一亠一一一丁一": 2671,
      "一一亀一一一亀一": 2672,
      "一丄一一一丐一一": 2673,
      "一一乀丂一丠一一": 2674,
      "一一丠一一三一一": 2675,
      "一一一一一丄丈一": 2676,
      "一一一丐一一丠一": 2677,
      "一一一一一一一丅": 2678,
      "一一一丠丂一": 2679,
      "一一一丈一乀丠一": 2680,
      "一一么一一": 2681,
      "一一丠丐一丄一一": 2682,
      "一一一一丠乀一一": 2683,
      "一一丠一一一亀一": 2684,
      "一一亀一一丠丐一": 2685,
      "一丄丄一一": 2686,
      "一一乀丑一": 2687,
      "一一丅一丠一一一": 2688,
      "一一乂一一丈一一": 2689,
      "一一一乆": 2690,
      "一一乀一亀丒一一": 2691,
      "一一业一一一一一": 2692,
      "三一一丁一": 2693,
      "乔丂一一": 2694,
      "一丠乀一一一一一": 2695,
      "一一丠且一一一一": 2696,
      "一一一乐一丈一一": 2697,
      "一一一一一一丠丐": 2698,
      "争一": 2699,
      "亠丈一": 2700,
      "一一予丂": 2701,
      "一亐丈一一": 2702,
      "一一丠丄一丢一一": 2703,
      "丈丂一": 2704,
      "一亀丂一一丈一一": 2705,
      "一亠丂一一一一一": 2706,
      "一一一丐一丅一一": 2707,
      "並一一": 2708,
      "一一亁一一丐一一": 2709,
      "一乐上": 2710,
      "一一一一丠丠一一": 2711,
      "一乀七一一": 2712,
      "一丄一一乀一一一": 2713,
      "一一丄一亠丄一一": 2714,
      "一一一亰": 2715,
      "一一亐丄": 2716,
      "且丂一": 2717,
      "一乀乂": 2718,
      "一一且一一亀一一": 2719,
      "一一亠丈一": 2720,
      "一丠両": 2721,
      "一一一丐乀一一一": 2722,
      "一一丒一一丁一一": 2723,
      "一一丈一乀三一一": 2724,
      "乄丂一一": 2725,
      "一一丄一么丁一一": 2726,
      "丠丄一": 2727,
      "一亐丈": 2728,
      "一两丂一一": 2729,
      "丐一丂一一": 2730,
      "一一一亀一一丂一": 2731,
      "一一一丈丠一一一": 2732,
      "一一乀一一丅一一": 2733,
      "一亐丂一一一一一": 2734,
      "一一丅一一丈一一": 2735,
      "一亠丄一一一一一": 2736,
      "一丆": 2737,
      "一一一丁乐一一一": 2738,
      "一一一一丄丁一一": 2739,
      "一一亀丐一丁一一": 2740,
      "一一一丈一一一丁": 2741,
      "一一上一一乀一一": 2742,
      "一一丄一亀丂一一": 2743,
      "一一一丁乀丁一一": 2744,
      "一一乄丁一一一一": 2745,
      "一一丂丁一一丁一": 2746,
      "一一丐一一上一一": 2747,
      "一一一且一丢一一": 2748,
      "一亀丆一一": 2749,
      "一一丁一一亁一一": 2750,
      "一一予丂一一一一": 2751,
      "一丐丈一一丂一一": 2752,
      "一一亰一一一一一": 2753,
      "一一一一丁丈一一": 2754,
      "一一乐丠一丈一一": 2755,
      "一一一亀丂一": 2756,
      "一亀乀一一丈一一": 2757,
      "一一丐丂丠一一一": 2758,
      "一一乀亁一丠一一": 2759,
      "丈丂一一": 2760,
      "一丂丂一一一一一": 2761,
      "一一丨一一一丁一": 2762,
      "一一亄一一丁一一": 2763,
      "一一一一一一亀丂": 2764,
      "一亀乄一一": 2765,
      "一一一丂一一亀一": 2766,
      "一一丈一亐一一一": 2767,
      "一乂一一一一一一": 2768,
      "仐丂一一": 2769,
      "一一丅丂亀一一一": 2770,
      "一一丐丅一一一一": 2771,
      "一一一丄一丨一一": 2772,
      "一一一一亀丢一一": 2773,
      "一一丈一一亁一一": 2774,
      "一一亁一一丈一一": 2775,
      "一一丂丁一丠一一": 2776,
      "乄丂一": 2777,
      "一丈丄一丈丄一一": 2778,
      "一一且丈一丂一一": 2779,
      "一一亠乀一丐一一": 2780,
      "什一": 2781,
      "一一上丄一丁一一": 2782,
      "一一乀丈一乄一一": 2783,
      "一一丂一乐丂一一": 2784,
      "一一丠一一亀乀一": 2785,
      "一亀丁一": 2786,
      "一一丨丐一丄一一": 2787,
      "一一一一一一丌一": 2788,
      "业一": 2789,
      "一一个丁一": 2790,
      "一一丨丂一": 2791,
      "一一交丂": 2792,
      "亀亀": 2793,
      "一一丒丁一一一一": 2794,
      "一一丐一丨丁一一": 2795,
      "一一习丁一一一一": 2796,
      "一一丠丄一丈一一": 2797,
      "一亀两一一": 2798,
      "一一两丂一一一一": 2799,
      "一一丐丅一": 2800,
      "一一丠一乀丂一一": 2801,
      "一一一丁乀丈一一": 2802,
      "乔丁一": 2803,
      "一上一一": 2804,
      "一一丐丂一丑一一": 2805,
      "一一丁一一一乀一": 2806,
      "一一亀一乀丈一一": 2807,
      "一亀丄一一丄一一": 2808,
      "一一乀丂一丂一一": 2809,
      "一乀一一一一丈一": 2810,
      "一乐丈一一一一一": 2811,
      "一一么一丄一一一": 2812,
      "一一什丂一一一一": 2813,
      "一一丈一乄一一一": 2814,
      "一一一亀一一亁一": 2815,
      "一一一丄一丅一一": 2816,
      "一一一丨一丐一一": 2817,
      "一一一丂丠丁一一": 2818,
      "一一乀一亐一一一": 2819,
      "一一丠丐一丁一一": 2820,
      "一一亀丄一丄一一": 2821,
      "一乀一一乀丁一一": 2822,
      "一一丈一一一亀一": 2823,
      "一乀一一亀": 2824,
      "一一亀一一亀乀一": 2825,
      "一一亀丆一一一一": 2826,
      "一一亠丈一一一一": 2827,
      "一亀乀一一丄一一": 2828,
      "一一一丁亀丒一一": 2829,
      "一一一井": 2830,
      "一一丁一一上一一": 2831,
      "乆一一": 2832,
      "一一一一一一乀丁": 2833,
      "丠一丄一一": 2834,
      "一亐丂": 2835,
      "一一乂一一一丁一": 2836,
      "一一丠丐一亀一一": 2837,
      "一一一且一丨一一": 2838,
      "一一亀乂一一一一": 2839,
      "一乀丢一一": 2840,
      "一一且一丈一一一": 2841,
      "一一一一一一乂一": 2842,
      "一一一一一予": 2843,
      "一亀一一一一丐一": 2844,
      "一一亀丂一乀一一": 2845,
      "一一亢一一一一一": 2846,
      "一一丠上一一一一": 2847,
      "一一丂丁一丐一一": 2848,
      "一亐丄一一": 2849,
      "一一三一亀一一一": 2850,
      "一一乀丠一丐一一": 2851,
      "亥一一": 2852,
      "一丈一一一一丂一": 2853,
      "一一三一乀一一一": 2854,
      "一一一一丨丂一一": 2855,
      "一一亀一亠一一一": 2856,
      "一一丨一丄一一一": 2857,
      "一一一一一亀上一": 2858,
      "一一丂一乀丁一一": 2859,
      "一一且丈一一一一": 2860,
      "一一亀丂亀一一一": 2861,
      "一一亀一丠丄一一": 2862,
      "一一乀丒一一一一": 2863,
      "一亀亄": 2864,
      "一一亠一一丂一一": 2865,
      "一丄一一丄一一一": 2866,
      "一一争一一一一一": 2867,
      "一一丁一亠一一一": 2868,
      "丁乀丠一": 2869,
      "一一丈丄一一丁一": 2870,
      "中一一": 2871,
      "一一一亩": 2872,
      "一一一个一": 2873,
      "一一乀一亀且一一": 2874,
      "一一一丁一丠丐一": 2875,
      "一一乐丄一一一一": 2876,
      "一一乀一丠丄一一": 2877,
      "一一丐一丠丁一一": 2878,
      "一丐丈一一丈一一": 2879,
      "一一両一一亀一一": 2880,
      "一一亀一丠丁一一": 2881,
      "一丘一一一一一一": 2882,
      "一一一一一一一上": 2883,
      "一一一丄乀丂一一": 2884,
      "一一么丄一一一一": 2885,
      "一乄一一一一一一": 2886,
      "一一丂丁丐一一一": 2887,
      "一么丅": 2888,
      "一一乀丠一丈一一": 2889,
      "一一一一什丂一一": 2890,
      "一一丈一么一一一": 2891,
      "一一万": 2892,
      "一一丐一亀丒一一": 2893,
      "一一一丠亀一一一": 2894,
      "一丠乄一一": 2895,
      "一一一丁亀丐一一": 2896,
      "一一丅一一丠一一": 2897,
      "丕一一一一": 2898,
      "一一乐一丄一一一": 2899,
      "一一一一一亨": 2900,
      "一一一与": 2901,
      "一丄一一一乀一一": 2902,
      "一一乀丑一一一一": 2903,
      "一一丠一且一一一": 2904,
      "一一亠且": 2905,
      "一一乀上一一": 2906,
      "一一乀丁一丄一一": 2907,
      "一一亀丂一一丈一": 2908,
      "一丠一一一一丄一": 2909,
      "一一上丄一一一一": 2910,
      "亀乀一一一": 2911,
      "一乀丠一一丄一一": 2912,
      "一一丠丁一丁一一": 2913,
      "一一乐丠一一一一": 2914,
      "一一乀一亀丄一一": 2915,
      "一一丠一一一丅一": 2916,
      "一一一丁乀丂一一": 2917,
      "一一丠一乀丈一一": 2918,
      "一一一丅一丁一一": 2919,
      "一乀一一么一一一": 2920,
      "一一丨丐一一一一": 2921,
      "一亀一一一丂丁一": 2922,
      "一乀丢一": 2923,
      "一一亨丄一": 2924,
      "一一一一亀丅一一": 2925,
      "一一乐一一一丂一": 2926,
      "一乀丠一一亀一一": 2927,
      "一亠丐一一": 2928,
      "一一乀一一乀丁一": 2929,
      "一一乀丁乀一一一": 2930,
      "一丠上": 2931,
      "亀丁一一": 2932,
      "一一丱": 2933,
      "一一乐一一丁一一": 2934,
      "一一亄一一一丂一": 2935,
      "一一一亁一一亁一": 2936,
      "一一亀一丠丅一一": 2937,
      "一一亀丐一予一一": 2938,
      "一乀丨一一": 2939,
      "亠上一一": 2940,
      "丈一一丂一": 2941,
      "一一丁一一一丠一": 2942,
      "一丒一一一一一一": 2943,
      "一一乐丄": 2944,
      "丂丠丑一一": 2945,
      "一一丄丂一乀一一": 2946,
      "乐一一一一": 2947,
      "一一一三一丈一一": 2948,
      "一乐三一一": 2949,
      "一一丢丁一一一一": 2950,
      "乨丁一一": 2951,
      "一一丨丂一一一一": 2952,
      "一乔一一一": 2953,
      "一乘": 2954,
      "一一一一一乀上一": 2955,
      "一一一一一亁": 2956,
      "一一亠一丐丁一一": 2957,
      "一一亀丅": 2958,
      "一丅一一一一一一": 2959,
      "一一一乐一丄一一": 2960,
      "一丐丈一乀一一一": 2961,
      "一一亀乄一": 2962,
      "一一一一一一一且": 2963,
      "一一一丠一乐一一": 2964,
      "一一一一临一一一": 2965,
      "一一乘一一一一一": 2966,
      "一乀丠一一丂一一": 2967,
      "亨丁一一": 2968,
      "一丠丑一": 2969,
      "一一両一一丄一一": 2970,
      "一丄丁一一一一一": 2971,
      "一乀亀": 2972,
      "一丂丂": 2973,
      "一一亀一一上一一": 2974,
      "一一丈丁亀丈一一": 2975,
      "亠丐一一": 2976,
      "一一亀一一一丅一": 2977,
      "一一乀丈一一丁一": 2978,
      "一一一一一亀丠一": 2979,
      "乊丁一": 2980,
      "一一上一一一丁一": 2981,
      "一一乀两一": 2982,
      "一一亠乀一一一一": 2983,
      "一一一丁一乐一一": 2984,
      "一一乑一一一一一": 2985,
      "一一丐丁一丈一一": 2986,
      "一一一丄丐一一一": 2987,
      "一亀乀一一一丁一": 2988,
      "一一一一一下一一": 2989,
      "一一丠一一且一一": 2990,
      "一一乐丄一": 2991,
      "一一一上一亀一一": 2992,
      "一一丠三一一一一": 2993,
      "丈一一一一一一一": 2994,
      "一一亀两一一一一": 2995,
      "一一乀一亐丂一一": 2996,
      "一一両一丐一一一": 2997,
      "一一丠丂一丐一一": 2998,
      "一亐上一一": 2999,
      "一一丠丕一": 3000,
      "一一両一丈一一一": 3001,
      "一亠丐一": 3002,
      "一一一丄丄": 3003,
      "一一一一一一么一": 3004,
      "一一乀一亀丐一一": 3005,
      "丁一一丂一": 3006,
      "一一丁一丨丁一一": 3007,
      "一亀一一一且一一": 3008,
      "一一亀丅一一一一": 3009,
      "一一丐一一一亀一": 3010,
      "一一一丐一予一一": 3011,
      "一丠丐一一乀一一": 3012,
      "一一五丂": 3013,
      "亐上一": 3014,
      "一一丅丂一一一一": 3015,
      "一一乐一一丠一一": 3016,
      "一丄一一一丠一一": 3017,
      "亠一一一一一": 3018,
      "一一一両一丂一一": 3019,
      "一一且丁一一一一": 3020,
      "一一丐一丠丄一一": 3021,
      "一一云一一一一一": 3022,
      "一一一丂亀丐一一": 3023,
      "仔一一一": 3024,
      "一亐丈一": 3025,
      "一丐上一一一一一": 3026,
      "亴一一一": 3027,
      "一一乄丂一一一一": 3028,
      "一一丨一一丐一一": 3029,
      "一一乀一一丒一一": 3030,
      "一一一丁乀上一一": 3031,
      "一一一丁一乀丠一": 3032,
      "一一丄丂一丠一一": 3033,
      "丁一丁一": 3034,
      "一一亠丈": 3035,
      "一一一一丐丐一一": 3036,
      "一一亀丂一丈一一": 3037,
      "一亀丐一一乀一一": 3038,
      "一一乀且一": 3039,
      "一一丂一丨一一一": 3040,
      "一一亐上一": 3041,
      "一一丐一两一一一": 3042,
      "一一且一一一丂一": 3043,
      "一一丄一丠丅一一": 3044,
      "一一丅一一亀一一": 3045,
      "一一乀丁一一丂一": 3046,
      "一亀丐一亀一一一": 3047,
      "一亀乄一一一一一": 3048,
      "一一丂一亀乀一一": 3049,
      "一一一丁亐一一一": 3050,
      "一一乀丂一一丂一": 3051,
      "一一乂一亀一一一": 3052,
      "一亀一一乐一一一": 3053,
      "一一亩一一一一一": 3054,
      "一一丈一乀上一一": 3055,
      "丨丄一": 3056,
      "上丄一": 3057,
      "一一一三亀丂一一": 3058,
      "一一丠一么丁一一": 3059,
      "一丈丄一一丁一一": 3060,
      "一一一丂一亁一一": 3061,
      "一一丑一": 3062,
      "一亠丂": 3063,
      "一一丠一乀丅一一": 3064,
      "一一亀丢一": 3065,
      "一一乀亁一一一一": 3066,
      "一一亀丄乀丁一一": 3067,
      "一一一一一乀三一": 3068,
      "一一一一一临一一": 3069,
      "一一丁一一亠一一": 3070,
      "一丠一一亀": 3071,
      "一一亐丈一一一一": 3072,
      "一一乒丁一一一一": 3073,
      "一一丂丈一一一一": 3074,
      "一一一丩一": 3075,
      "一一乕": 3076,
      "一一乀且一一一一": 3077,
      "一一乊丁一": 3078,
      "一一一丁亀乀一一": 3079,
      "一么丅一一": 3080,
      "一一一一一久一一": 3081,
      "一一丁丂一": 3082,
      "一一一丂亀丄一一": 3083,
      "一一交丂一一一一": 3084,
      "一一乀一乐一一一": 3085,
      "一一両一乀一一一": 3086,
      "一一一下一一一一": 3087,
      "一一一丠一上一一": 3088,
      "一一一一丂一丁一": 3089,
      "一一丄丂一一丂一": 3090,
      "一一丐一亐一一一": 3091,
      "一一一东": 3092,
      "一一亀乀一亀一一": 3093,
      "一一一乂一一丂一": 3094,
      "丁一丈一": 3095,
      "一一亀丢一一一一": 3096,
      "一一丂一一乀丁一": 3097,
      "一乀丁一一丁一一": 3098,
      "一一一一一丈丐一": 3099,
      "一一一丈亀丄一一": 3100,
      "一一丐一亠丂一一": 3101,
      "一一乀丈一丐一一": 3102,
      "一一两丈一一一一": 3103,
      "一一予一一丄一一": 3104,
      "乐一一一一一": 3105,
      "一一一丈一上一一": 3106,
      "一一乔丂一": 3107,
      "一一一丱": 3108,
      "一一亀乀一丐一一": 3109,
      "一一乀丨一一一一": 3110,
      "一乀丠一一一": 3111,
      "世一": 3112,
      "一乐丁一": 3113,
      "一买": 3114,
      "一一亠一一乀一一": 3115,
      "一一乀一丐丂一一": 3116,
      "一一丬一一一一一": 3117,
      "一乀严一一": 3118,
      "一一一仐": 3119,
      "一一乀丨一": 3120,
      "一一丄丐一一一一": 3121,
      "一丠乀一一": 3122,
      "一丈丄一丈一一一": 3123,
      "一予丄": 3124,
      "一一丅一乀一一一": 3125,
      "一一一上一一丈一": 3126,
      "一一予丄一一一一": 3127,
      "一一一亄一丠一一": 3128,
      "一丠丐一丈一一一": 3129,
      "一一一亀丁一一一": 3130,
      "一一乀一亀上一一": 3131,
      "一一丂一亐丂一一": 3132,
      "一丐一一一一丂一": 3133,
      "一一一上一丂一一": 3134,
      "一一丂一交一一一": 3135,
      "亠丒一一": 3136,
      "一一一丂丂一": 3137,
      "一一一亥": 3138,
      "一一一义一一一一": 3139,
      "一一乀丄一丠一一": 3140,
      "一亀一一两一一一": 3141,
      "一一丒丄一一一一": 3142,
      "一亡": 3143,
      "五一": 3144,
      "一一亠一丠一一一": 3145,
      "一一丁丄一一一一": 3146,
      "一一丈丁一一丄一": 3147,
      "一一乂一一": 3148,
      "一一一乀丂一": 3149,
      "一一亐丠一一一一": 3150,
      "一亀么一一一一一": 3151,
      "丨一一一一一": 3152,
      "一丠一一亠一一一": 3153,
      "一一么丐一一一一": 3154,
      "一一一丂一両一一": 3155,
      "一一一一一世一一": 3156,
      "一一亐一亀一一一": 3157,
      "丠乀一一": 3158,
      "丠丠一一": 3159,
      "一一亀一一亠一一": 3160,
      "一一亁一一一丂一": 3161,
      "一一一亐一丈一一": 3162,
      "一乄丁一一": 3163,
      "一一一一习丁一一": 3164,
      "一一丈丁丐一一一": 3165,
      "一一一丆一": 3166,
      "一亀一一一乐一一": 3167,
      "一丐三一一": 3168,
      "一一且一一丈一一": 3169,
      "一一丠一丠丁一一": 3170,
      "一一一乄一丠一一": 3171,
      "一乐丂": 3172,
      "一一丠一一丂丁一": 3173,
      "一一丨一亀一一一": 3174,
      "一一亀一一严一一": 3175,
      "一一一丒一丅一一": 3176,
      "一一一丂一乐一一": 3177,
      "一一丂一两一一一": 3178,
      "一一丄一亀乀一一": 3179,
      "一一亁一一丄丂一": 3180,
      "一一丠一丐丂一一": 3181,
      "一丨丂一一": 3182,
      "一一一乀一丁一一": 3183,
      "一亀丨一一一一一": 3184,
      "一亀丂一一丄一一": 3185,
      "亀两一一": 3186,
      "一一一一且丁一一": 3187,
      "一一亊一一一一一": 3188,
      "一丂一一一丄一一": 3189,
      "一一亀一丨一一一": 3190,
      "一一丈一亀上一一": 3191,
      "一一一一一一一丨": 3192,
      "一一亀一一両一一": 3193,
      "一一丈一乐丁一一": 3194,
      "一一丂一一一乀一": 3195,
      "一一丠一亠一一一": 3196,
      "丁一一亁一": 3197,
      "一一乀一一丄丂一": 3198,
      "一一丐一乐一一一": 3199,
      "一一一一丐丠一一": 3200,
      "一一丂一丐丈一一": 3201,
      "一一乀亂一一一一": 3202,
      "一一亀一乀丠一一": 3203,
      "一一乀丠一丂一一": 3204,
      "一一一丄一丂丁一": 3205,
      "丐丄一": 3206,
      "一亀一一丠": 3207,
      "一一乀一乀丂一一": 3208,
      "一一丂丁一丈丄一": 3209,
      "一一一丈丂": 3210,
      "一丠丐一一丂一一": 3211,
      "一一丠乁一一一一": 3212,
      "亘一一一": 3213,
      "予丄一一": 3214,
      "一丠丐一一丁一一": 3215,
      "一一一两一一丁一": 3216,
      "一一一亀一一丐一": 3217,
      "一一个丁一一一一": 3218,
      "一亀乀一一丐丈一": 3219,
      "一一一丅一一丁一": 3220,
      "一一一丨一乄一一": 3221,
      "一一亐丄一一一一": 3222,
      "一一丄一乀丅一一": 3223,
      "亁一一一": 3224,
      "一一丁一么丁一一": 3225,
      "一一乀丅一一": 3226,
      "一亀乔一一一一一": 3227,
      "一丐丠一一": 3228,
      "丁亀丈一": 3229,
      "一一丂一一一亀一": 3230,
      "一一一一且": 3231,
      "一一予丂一": 3232,
      "一亀丂一亀一一一": 3233,
      "一一丨一一一丄一": 3234,
      "一乀丠一一丈丄一": 3235,
      "义一": 3236,
      "一一乀両一": 3237,
      "一一丐丂一丂一一": 3238,
      "五丂一一": 3239,
      "一一乀一一一亁一": 3240,
      "一一丈丠一一一一": 3241,
      "一一一丈一一亀一": 3242,
      "一亀乐一一": 3243,
      "五丂一": 3244,
      "一一三丂一一一一": 3245,
      "一一乄一一丂一一": 3246,
      "两一一一一": 3247,
      "一一亐丄一": 3248,
      "一一一乐一亀一一": 3249,
      "一一不一一一一一": 3250,
      "一亀一一亀乀一一": 3251,
      "一乀两一一一一一": 3252,
      "一亀丂一一丐一一": 3253,
      "一乀予一一": 3254,
      "一一一一一一丘一": 3255,
      "一丐丈一一丠一一": 3256,
      "丘丁一一": 3257,
      "一一亠一一一丄一": 3258,
      "一一丂一五一一一": 3259,
      "一亀乀一一丂丁一": 3260,
      "一亀一一一丅一一": 3261,
      "一一丑一一": 3262,
      "一一乔丂一一一一": 3263,
      "一一亀一一三一一": 3264,
      "丁丐一一": 3265,
      "丁亀乀一": 3266,
      "乐丅一一": 3267,
      "一一一一一义一一": 3268,
      "一一一亀一一丈一": 3269,
      "一丐一一乐一一一": 3270,
      "一一丂一一丨一一": 3271,
      "一丂一一一丂一一": 3272,
      "一丂丁一一丁一一": 3273,
      "一一一乂一丠一一": 3274,
      "一亀一丂一一一一": 3275,
      "一一一二": 3276,
      "仠一一": 3277,
      "一一丐一一亁一一": 3278,
      "一乀丢一一一一一": 3279,
      "亀亀一一": 3280,
      "一一亀一一丈丄一": 3281,
      "一一丐七": 3282,
      "一一一丂一乀丠一": 3283,
      "一一一一亰一一一": 3284,
      "一么丄": 3285,
      "一一丠丄一丄一一": 3286,
      "一一一丒一丐一一": 3287,
      "一一乀丂亠一一一": 3288,
      "一亀丂一一乀一一": 3289,
      "一一乀亀一一一一": 3290,
      "一一一丁一一亁一": 3291,
      "一一么丅一一一一": 3292,
      "一一丄一一乐一一": 3293,
      "一一一乐一一丂一": 3294,
      "一一乀一乀丁一一": 3295,
      "交一": 3296,
      "一乀丁一一丄一一": 3297,
      "一一井一一一一一": 3298,
      "一一乀一一丨一一": 3299,
      "亀丄": 3300,
      "一一亨丄一一一一": 3301,
      "一一两丁": 3302,
      "一一一両一丐丁一": 3303,
      "一乐丈一": 3304,
      "一一丣": 3305,
      "一一一丅一丐一一": 3306,
      "一亀一丁一": 3307,
      "一亀乀一一一": 3308,
      "丑一一一一一": 3309,
      "一一亄一乀丄一一": 3310,
      "一一一乀一丨一一": 3311,
      "一丈丄一一丄一一": 3312,
      "一一丄一一亀丂一": 3313,
      "三丂一": 3314,
      "一一一一一丬一一": 3315,
      "一一亀一么一一一": 3316,
      "一一一严一": 3317,
      "一乀丂一一丂一一": 3318,
      "一一亀一一一一丁": 3319,
      "一一一丐一亀乀一": 3320,
      "丂丠丅一一": 3321,
      "一一两丈一丂一一": 3322,
      "一一亀丨一一一一": 3323,
      "丁一一丁": 3324,
      "一一丈一丐丂一一": 3325,
      "一一丠丑一一一一": 3326,
      "一丐丠一一一一一": 3327,
      "一一丈丁一丁一一": 3328,
      "一一丒丄一丁一一": 3329,
      "一一一丂丈一一一": 3330,
      "一一一丂一一一丁": 3331,
      "一一么丐一丄一一": 3332,
      "一一买一一一一一": 3333,
      "一丄丈一": 3334,
      "一一丄一亀丄一一": 3335,
      "一一一一一亢一一": 3336,
      "一一一一丂亀一一": 3337,
      "一丄一一一一丁一": 3338,
      "一一丐三一一一一": 3339,
      "一一丐丈一一丂一": 3340,
      "一一丈丄一乀一一": 3341,
      "一一亐丠一丈一一": 3342,
      "一一一丄一両一一": 3343,
      "一乀丠一一丠丐一": 3344,
      "一一一亁一丠一一": 3345,
      "一一丈丄一亀一一": 3346,
      "一一丠一一严一一": 3347,
      "乚一一": 3348,
      "一一上一一乀丁一": 3349,
      "一一一丂丂一一一": 3350,
      "一一丈一乀丈一一": 3351,
      "一一丄一丈丄一一": 3352,
      "一亀丐丁一": 3353,
      "一一一一乘一一一": 3354,
      "一一乀亂一丠一一": 3355,
      "一一一互一一一一": 3356,
      "一一三丂亀一一一": 3357,
      "一一丠乁一丐一一": 3358,
      "一一亀一亀丂一一": 3359,
      "一一丑一丈一一一": 3360,
      "一乀丈一一丠一一": 3361,
      "一一一一丈丈一一": 3362,
      "一丁丁一一一一一": 3363,
      "一一丈一五一一一": 3364,
      "一乐丂一一一一一": 3365,
      "一一丠一丨一一一": 3366,
      "一一一丂一严一一": 3367,
      "仈一一一": 3368,
      "一一乀三一丂一一": 3369,
      "一一一丠丐": 3370,
      "一一亁一丈一一一": 3371,
      "与一": 3372,
      "一丂一一丐一一一": 3373,
      "一一丂一亠丂一一": 3374,
      "一一亠丄一丁一一": 3375,
      "一亀且一": 3376,
      "一一么丅一": 3377,
      "一一一丠一一乀一": 3378,
      "一一丂一乀丂一一": 3379,
      "一一丐一交一一一": 3380,
      "一一亁一一丂一一": 3381,
      "一一么丂一": 3382,
      "一亅": 3383,
      "丌一一一一一": 3384,
      "一一丐一亀丐一一": 3385,
      "一一丨丂": 3386,
      "一一丅一一亠一一": 3387,
      "一一一丅一亀一一": 3388,
      "一一一丂亠丄一一": 3389,
      "一一什丁一一一一": 3390,
      "一丨丄一一一一一": 3391,
      "一一久一一一一一": 3392,
      "一一么丂": 3393,
      "一一上一一丄一一": 3394,
      "一一丠一丈丁一一": 3395,
      "一一亀丂一丑一一": 3396,
      "一亀亐": 3397,
      "一一丄丂一丐丈一": 3398,
      "一一丈一丨一一一": 3399,
      "一一亠且一": 3400,
      "一一一丈丂一一一": 3401,
      "一一一不一一一一": 3402,
      "一一一一一丅": 3403,
      "一一亀一亀丄一一": 3404,
      "一一亀一一丩一一": 3405,
      "仠一一一": 3406,
      "一一乀一亠丂一一": 3407,
      "一一亁一一丠丐一": 3408,
      "乁一一一": 3409,
      "一一一乐丁一一一": 3410,
      "一一仠一一一一一": 3411,
      "一一上一且一一一": 3412,
      "一一一丁一且一一": 3413,
      "一一丐三一": 3414,
      "一一一丅一丢一一": 3415,
      "一一亀一乀丅一一": 3416,
      "一一丈一一亠一一": 3417,
      "一一乂一一乀一一": 3418,
      "一丈丐一": 3419,
      "一丈丐一一": 3420,
      "一丠丐一一丐丈一": 3421,
      "一一一一一一乁一": 3422,
      "一一丐一一丕一一": 3423,
      "丫一一": 3424,
      "一一一丈一丄丂一": 3425,
      "一一丂丁一丄一一": 3426,
      "一一丈丄亀一一一": 3427,
      "一一一一一一予一": 3428,
      "一丁丁一": 3429,
      "一乀个一一一一一": 3430,
      "一丄丁": 3431,
      "一一一丂乀丅一一": 3432,
      "一一丁一一且一一": 3433,
      "一乀丅一": 3434,
      "一一丄丈一": 3435,
      "一一一丁乐丂一一": 3436,
      "一丠丐一一丄丂一": 3437,
      "一亀丘": 3438,
      "一亀上一": 3439,
      "一亀乀一一乀丠一": 3440,
      "一亀乊一一一一一": 3441,
      "一一一一一一丕一": 3442,
      "一一予一一丠一一": 3443,
      "一乐丁一一一一一": 3444,
      "丁一丂一": 3445,
      "一乀一一一丨一一": 3446,
      "一一丄一一上一一": 3447,
      "丂乀丅一一": 3448,
      "一一乀一一一上一": 3449,
      "一乀一一一亁一一": 3450,
      "一一丂丁乀一一一": 3451,
      "一一一一一亀且一": 3452,
      "一一一久一一一一": 3453,
      "一一丐一一丈丄一": 3454,
      "一一亀一一亀丂一": 3455,
      "亊一": 3456,
      "一亀一一且一一一": 3457,
      "一亀乀一一丁一一": 3458,
      "一丨丄一": 3459,
      "一一丄一亨一一一": 3460,
      "一么丂一一": 3461,
      "一一丁一乐丁一一": 3462,
      "一一丐一亀且一一": 3463,
      "一丠乀": 3464,
      "一亀一一亐一一一": 3465,
      "一乀丕一一": 3466,
      "一一丐一一一一丁": 3467,
      "一一乀丁一亀一一": 3468,
      "一一且一乀一一一": 3469,
      "丁乀一一": 3470,
      "一亀丐一一丂一一": 3471,
      "一一么一乀一一一": 3472,
      "一一丂一么一一一": 3473,
      "一一丐丁一乀一一": 3474,
      "丁亀一一": 3475,
      "一一一一一一丈丈": 3476,
      "一一一一一亊一一": 3477,
      "一丄一一丈一一一": 3478,
      "一一世一一一一一": 3479,
      "一一乀一一一一丁": 3480,
      "一一一乀一一丠一": 3481,
      "一一亀一一两一一": 3482,
      "一一丂一一乀丠一": 3483,
      "一一一一丂一丂一": 3484,
      "一一且一一亀丂一": 3485,
      "一一亀丒一丄一一": 3486,
      "一一丈一一且一一": 3487,
      "一予丂一一": 3488,
      "一一丁一一丠丐一": 3489,
      "一丨丅": 3490,
      "一一乀一丠丐一一": 3491,
      "一丂一一一丈一一": 3492,
      "一互": 3493,
      "一一么丂一一一一": 3494,
      "二一一": 3495,
      "一丌一一一一一一": 3496,
      "一一一丠一一亀一": 3497,
      "一一丈一一丢一一": 3498,
      "一且丂": 3499,
      "一临": 3500,
      "一一一且一丄一一": 3501,
      "一丨丄一一": 3502,
      "一一亀两一": 3503,
      "一一両一一丠一一": 3504,
      "一一亀丐一一丂一": 3505,
      "一一乀丠一一丁一": 3506,
      "一一一两一上一一": 3507,
      "一一亀乀一丠一一": 3508,
      "一丈一一丄一一一": 3509,
      "一一一世一一一一": 3510,
      "一一一丁亠丂一一": 3511,
      "一一亴": 3512,
      "一一丄一一丑一一": 3513,
      "一一亀亄": 3514,
      "一一一亅一一一一": 3515,
      "一亄丂": 3516,
      "一一乀个一": 3517,
      "一一一亀一一亀一": 3518,
      "一一丠一一丐丈一": 3519,
      "一一丠丅一丠一一": 3520,
      "一亁一一": 3521,
      "一一丐一丈丁一一": 3522,
      "一一丠丁一丂一一": 3523,
      "一一亄一一丠一一": 3524,
      "一乀丠一一亁一一": 3525,
      "一且丁一一": 3526,
      "一一丠一乐丁一一": 3527,
      "一一乐一予一一一": 3528,
      "一乀么": 3529,
      "一一两丁一": 3530,
      "一一丈一一丄丂一": 3531,
      "一一一丁一一一丁": 3532,
      "一乀両一一": 3533,
      "一一丄丂乀一一一": 3534,
      "丑丂一": 3535,
      "一一一丁一丐丈一": 3536,
      "一一亄一一亀一一": 3537,
      "一一一丁一乂一一": 3538,
      "一一亀丐一丠一一": 3539,
      "一一一丅乀丂一一": 3540,
      "一一一乐一丠一一": 3541,
      "一一一一丁一丄一": 3542,
      "一一两一丠一一一": 3543,
      "一丈一一一一丁一": 3544,
      "一一丂丁一一丄一": 3545,
      "一一一丨一乐一一": 3546,
      "丠丈一": 3547,
      "一一一丄乀三一一": 3548,
      "一一丈一一三一一": 3549,
      "一一丈一亀乀一一": 3550,
      "一且丂一": 3551,
      "一一一丄一乂一一": 3552,
      "一一乀丈一丈一一": 3553,
      "一一乄一一丐一一": 3554,
      "一一一乂一丄一一": 3555,
      "一一丸一一一一一": 3556,
      "一一一一一丰": 3557,
      "丐丐一一": 3558,
      "一一丄一两一一一": 3559,
      "一一一丁丁一": 3560,
      "一一习丁": 3561,
      "一亀个": 3562,
      "一一且一一且一一": 3563,
      "一亠上一一": 3564,
      "一一一丁亀上一一": 3565,
      "一乀一丁一一一一": 3566,
      "乀乀一一": 3567,
      "一一丂一一丅一一": 3568,
      "一一丠一一両一一": 3569,
      "一乀一一一上一一": 3570,
      "一一亘": 3571,
      "一一丄一丠丄一一": 3572,
      "一乀一一且一一一": 3573,
      "一一一一乀丢一一": 3574,
      "一丐丅": 3575,
      "一一丨一一丨一一": 3576,
      "一一上一一一丄一": 3577,
      "一亠丒一一": 3578,
      "一一一一一丂一": 3579,
      "一一一一乀个一一": 3580,
      "一一亐丂一丐一一": 3581,
      "一一丐丈一丁一一": 3582,
      "一一丈丁一乀一一": 3583,
      "一七": 3584,
      "一一一一乀丨一一": 3585,
      "一么丁一一一一一": 3586,
      "一一一丄亀上一一": 3587,
      "一一丐丂一一丈一": 3588,
      "一一乐三一一一一": 3589,
      "一一上一一上一一": 3590,
      "一一一一一丄一": 3591,
      "乐丈一": 3592,
      "一一亀且一一": 3593,
      "一乀且一一一一一": 3594,
      "一亀乀一一丠一一": 3595,
      "一一丒一一乀一一": 3596,
      "买一一一": 3597,
      "一一一一一乨一一": 3598,
      "一一丢一一丁一一": 3599,
      "一一丄丂一丈一一": 3600,
      "一一亀丄乀丄一一": 3601,
      "乤一一一": 3602,
      "丵一一": 3603,
      "丄丄": 3604,
      "一一一丐一三一一": 3605,
      "一一丐一一丨一一": 3606,
      "一亢": 3607,
      "一丐丈一一丁一一": 3608,
      "一乀上一": 3609,
      "一一丅一一一丂一": 3610,
      "亀丐": 3611,
      "一一丁一乀丠一一": 3612,
      "一一一丐一一亀一": 3613,
      "丒丄一": 3614,
      "一一一三亀丈一一": 3615,
      "一一乐一丐一一一": 3616,
      "一一乀丁亀丈一一": 3617,
      "一一东一一一一一": 3618,
      "一一亐上一一一一": 3619,
      "一一乀上一乀一一": 3620,
      "一一互一一一一一": 3621,
      "一一亐一一丁一一": 3622,
      "一一一丄乀丠一一": 3623,
      "一一一丐一且一一": 3624,
      "一一一丁一丅一一": 3625,
      "一一一乢": 3626,
      "一亠丂一": 3627,
      "一一丠丒一一一一": 3628,
      "一一一一丠且一一": 3629,
      "一一一一丠丑一一": 3630,
      "一一丈丄一一丄一": 3631,
      "一丐丢一一": 3632,
      "一丨丁一": 3633,
      "一一一上一乄一一": 3634,
      "一一两丁一一一一": 3635,
      "一一亀丄一丁一一": 3636,
      "一一丈一一一丅一": 3637,
      "一丈丄一丠一一一": 3638,
      "一一丠一乀丄一一": 3639,
      "丠丒一一": 3640,
      "一一丐一一乄一一": 3641,
      "一一两一一亀一一": 3642,
      "一一一一一亀丒一": 3643,
      "一两丁一一": 3644,
      "一一乂一一丐一一": 3645,
      "一一亀一一丕一一": 3646,
      "一亀一一一上一一": 3647,
      "一一丂丄一": 3648,
      "一一丐乀一一一一": 3649,
      "一亀个一一": 3650,
      "一一丂一亀丈一一": 3651,
      "一一丂丁一丁一一": 3652,
      "丁一一一一一一": 3653,
      "一一丐丅一一": 3654,
      "一一一一一一丰一": 3655,
      "一一丄一一亀乀一": 3656,
      "一一丄一一一亀一": 3657,
      "一一一丈亀乀一一": 3658,
      "一一义一一一一一": 3659,
      "一一亄一亀一一一": 3660,
      "一亄丂一": 3661,
      "一亀丅一一": 3662,
      "一丠丒一一": 3663,
      "一一亁一丠一一一": 3664,
      "亨一": 3665,
      "一一亀丂一一丄一": 3666,
      "一亀一一交一一一": 3667,
      "亀乂一一": 3668,
      "一一一乔一": 3669,
      "一一一一七一一一": 3670,
      "一一一上亀丄一一": 3671,
      "一一乐丂亀一一一": 3672,
      "一丄丂一丄丂一一": 3673,
      "亨丂一": 3674,
      "一一一一亀乄一一": 3675,
      "一一一丄一一一丁": 3676,
      "一一一丂一亀乀一": 3677,
      "一一丁一丠丁一一": 3678,
      "一一一且一一丁一": 3679,
      "予丄一": 3680,
      "一一一丅一一丐一": 3681,
      "一丁丁": 3682,
      "一一乀丂一丄一一": 3683,
      "么丂一": 3684,
      "一一一丄一三一一": 3685,
      "一一丐一一乀丁一": 3686,
      "一丐丈一一丈丄一": 3687,
      "一乀丠一一丐一一": 3688,
      "一丂一一亀一一一": 3689,
      "一一一丈一乐一一": 3690,
      "一亀一一一丐丈一": 3691,
      "一丠丑一一一一一": 3692,
      "一丈丅一一一一一": 3693,
      "一乀一一一乀": 3694,
      "一乀一一丨一一一": 3695,
      "一亀丂一一乐一一": 3696,
      "丙一一": 3697,
      "一一乐一一一丈一": 3698,
      "一丈丑一一": 3699,
      "丄丁一一": 3700,
      "一一一一丁一丂丁": 3701,
      "一一亁一一乀一一": 3702,
      "一一一亐丂一一一": 3703,
      "丰一一一一": 3704,
      "一一一一丠丕一一": 3705,
      "一亀一一一亀": 3706,
      "乀亀一一": 3707,
      "亨丄一": 3708,
      "一一一亀一丂一一": 3709,
      "一乀丈一乀一一一": 3710,
      "一一乀一丠上一一": 3711,
      "一一亀丂丠丁一一": 3712,
      "一一一丂亀且一一": 3713,
      "一丠丒一一一一一": 3714,
      "亀丆一一": 3715,
      "一一一丸": 3716,
      "一一丠丂一亀一一": 3717,
      "二一一一": 3718,
      "一一下一一一一一": 3719,
      "丱一一": 3720,
      "一一一两丁一一一": 3721,
      "一一一业一一一一": 3722,
      "一亀丢一一一一一": 3723,
      "一一丐丂一亀一一": 3724,
      "一一且一一一丈一": 3725,
      "一丂一一一丠一一": 3726,
      "乑一": 3727,
      "一一乪": 3728,
      "一亀丆": 3729,
      "一亠且一一": 3730,
      "一一亀七一一一一": 3731,
      "丂一丁一一": 3732,
      "丐上一一": 3733,
      "丄一一丂一": 3734,
      "一一丄丂一丂一一": 3735,
      "一一丐一么一一一": 3736,
      "一一丂一乀上一一": 3737,
      "一一一丂丠": 3738,
      "一亀丂一丐一一一": 3739,
      "一乐丅一一": 3740,
      "一一丠丁乐一一一": 3741,
      "一亀丄一丠一一一": 3742,
      "一一丄一丈丁一一": 3743,
      "一一亐丁一一一一": 3744,
      "一亐丂一": 3745,
      "一一一丁一一上一": 3746,
      "乄一一一一": 3747,
      "一一亀一丨丁一一": 3748,
      "丁一丐一一": 3749,
      "一丈丄一一丐一一": 3750,
      "一亀一丁": 3751,
      "一一一三一丂一一": 3752,
      "一一一丂丠丐一一": 3753,
      "丈一一丁一": 3754,
      "一一一一丂丐一一": 3755,
      "一丠一一一一丐一": 3756,
      "一一一乐丂一一一": 3757,
      "一一丂一一丠丐一": 3758,
      "一一亀丈一乀一一": 3759,
      "一一乀一一丠丐一": 3760,
      "一一丠七一一一一": 3761,
      "一一丁一丠丅一一": 3762,
      "一一丁丐一一一一": 3763,
      "一一亀一乐丁一一": 3764,
      "一一乀丒一": 3765,
      "一一乀丁一丁一一": 3766,
      "一一一乒一": 3767,
      "一一丂丐一一一一": 3768,
      "一一仈一一一一一": 3769,
      "一一三一一丠一一": 3770,
      "一一乀丂亀一一一": 3771,
      "一乀一一一一丠一": 3772,
      "一亀丐一一丐一一": 3773,
      "一一乀丢一一一一": 3774,
      "一一丠一一一一丁": 3775,
      "一一丢一一丈一一": 3776,
      "一一丐一亨一一一": 3777,
      "一乀乊": 3778,
      "一一丈丄一丠丐一": 3779,
      "一一一丐丐一": 3780,
      "一一一一一丐丠一": 3781,
      "一乀丁一一丠一一": 3782,
      "一一丄一一丂丁一": 3783,
      "一一丂丠一一一一": 3784,
      "一一丂丁丠一一一": 3785,
      "一一乀丌": 3786,
      "一亀乄一": 3787,
      "一亀乊一一": 3788,
      "仄一一一": 3789,
      "一一丠丆": 3790,
      "一一丈丐一": 3791,
      "一一一丂丁一丂丁": 3792,
      "一乐丁": 3793,
      "一丠丐一一一丂一": 3794,
      "一一一亠一丐一一": 3795,
      "一一丂丁一乀丠一": 3796,
      "一一一一丄丄一一": 3797,
      "乁一一一一": 3798,
      "一一丄丂一亁一一": 3799,
      "一一丠一丐丅一一": 3800,
      "一一丈丁一一丁一": 3801,
      "一一丄一一乀丠一": 3802,
      "个一一一一": 3803,
      "一亀一一五一一一": 3804,
      "一一丐一丠丂一一": 3805,
      "一一一上一丠一一": 3806,
      "一一乀一亀丈一一": 3807,
      "亰丂一一": 3808,
      "一一一一一乘一一": 3809,
      "一一亁一亀一一一": 3810,
      "丸一一一": 3811,
      "一一丈丄一丂丁一": 3812,
      "一一丢一一": 3813,
      "一一亀一乀丂一一": 3814,
      "一一一丁一丒一一": 3815,
      "一一乤一一一一一": 3816,
      "一一丨一一一丅一": 3817,
      "一一么一一一丁一": 3818,
      "一一亀丨一": 3819,
      "一一一一一且丁一": 3820,
      "一一亀且一亀一一": 3821,
      "一一丈一一丐丈一": 3822,
      "一一一两一丠一一": 3823,
      "一么丁": 3824,
      "一亀丂一一一丁一": 3825,
      "一一亀一一乐一一": 3826,
      "一一亀乀一丄一一": 3827,
      "亀丐丁一": 3828,
      "一一丁丈一一一一": 3829,
      "一乀严一一一一一": 3830,
      "丁一丄一": 3831,
      "一一丁一一丐丈一": 3832,
      "一一亁一一亀乀一": 3833,
      "一乀两一一": 3834,
      "一一乀丂丠丂一一": 3835,
      "一一丠三一": 3836,
      "一一一一丂乀一一": 3837,
      "一一乀丆一一一一": 3838,
      "一乐丂一": 3839,
      "一一丄丠一一一一": 3840,
      "且丈一": 3841,
      "一一丂一乀丠一一": 3842,
      "両一一一": 3843,
      "三一一一一一": 3844,
      "一一亀丂一丂一一": 3845,
      "一一一一亀乔一一": 3846,
      "一一一乀一且一一": 3847,
      "一乀丠一一一丁一": 3848,
      "丄一一一一一一一": 3849,
      "一一亀丄一一丄一": 3850,
      "一一乚": 3851,
      "一一乀么": 3852,
      "一一一一一一亐一": 3853,
      "乪一一": 3854,
      "一丐丈一一丂丁一": 3855,
      "一乀丠一一一丄一": 3856,
      "一一一丠丠一一一": 3857,
      "一一一亄一一丄一": 3858,
      "一一丄一一丈丄一": 3859,
      "一一丠一一乐一一": 3860,
      "一一亠一亀一一一": 3861,
      "丂一丐一一": 3862,
      "一一一一亀乐一一": 3863,
      "一一丠丐一丂一一": 3864,
      "一亀丐一丠一一一": 3865,
      "一丠严": 3866,
      "一一丂一一丐丈一": 3867,
      "一一乀丁一一丈一": 3868,
      "一亀丆一一一一一": 3869,
      "一一么丁一丈一一": 3870,
      "一丢一一一一一一": 3871,
      "一一亄一丈一一一": 3872,
      "一一一丈丈一": 3873,
      "一一丄一一丠丐一": 3874,
      "一一么一亀一一一": 3875,
      "一一丁一乀三一一": 3876,
      "一丐一一一一丈一": 3877,
      "一一亀丄一丈一一": 3878,
      "一乀丩一一": 3879,
      "一丂一一丠一一一": 3880,
      "一一乀一一乂一一": 3881,
      "什丈一一": 3882,
      "一一一丐一丈丄一": 3883,
      "一一丠一一个一一": 3884,
      "一乀丁一一丂一一": 3885,
      "一一一丁丄一一一": 3886,
      "一一乀一两一一一": 3887,
      "一一一乑一一一一": 3888,
      "一丂一一丈一一一": 3889,
      "一一仔": 3890,
      "一一両一一丈一一": 3891,
      "一一串一一一一一": 3892,
      "丢丄一": 3893,
      "一亀一丈一一一一": 3894,
      "一一丅一一丂一一": 3895,
      "一丠丕一一一一一": 3896,
      "一一亃": 3897,
      "一一丁一乀丄一一": 3898,
      "一一乀一丠丁一一": 3899,
      "一一一一一一亄一": 3900,
      "一一一丐一亁一一": 3901,
      "丂一一丂丁": 3902,
      "一亂一一一一一一": 3903,
      "一丐丈一亀一一一": 3904,
      "一一一一一争一一": 3905,
      "亐丄一": 3906,
      "一一一丠一丐丁一": 3907,
      "一一乐一一乐一一": 3908,
      "丁一丠一一": 3909,
      "一亄丂一一": 3910,
      "一一一万一一一一": 3911,
      "一一一一一丁一": 3912,
      "一一两一乀一一一": 3913,
      "亂一一一": 3914,
      "一乀丁一一丈一一": 3915,
      "一一丐一乀丂一一": 3916,
      "一一丐一予丂一一": 3917,
      "一一丐一一丒一一": 3918,
      "一一乊丁一一一一": 3919,
      "一一一一一一丁": 3920,
      "一一一一一丈一": 3921,
      "一一一一亠上一一": 3922,
      "一一一严一丈一一": 3923,
      "一一丁一亀丂一一": 3924,
      "一一一丒一丑一一": 3925,
      "一一亠丒一一一一": 3926,
      "一一乂一丠丂一一": 3927,
      "一一丠一亐一一一": 3928,
      "一乀亀一一": 3929,
      "一习一一一": 3930,
      "一一一丈一乂一一": 3931,
      "一一丄一亐一一一": 3932,
      "一一丙一一一一一": 3933,
      "一一丐丈一一丁一": 3934,
      "乌一一一": 3935,
      "一乀丁一乀一一一": 3936,
      "一丐丈一一一丁一": 3937,
      "一一丈丄一丐一一": 3938,
      "丄一丂一一": 3939,
      "乀个一一": 3940,
      "一一亀上一一": 3941,
      "一一亀乐一一一一": 3942,
      "一一什丂": 3943,
      "一一一亠一丈一一": 3944,
      "一亀一一一一乀一": 3945,
      "乀一丈一一": 3946,
      "一一一丈亀丒一一": 3947,
      "乀乀": 3948,
      "丂丠一一": 3949,
      "一一丈丄一丄一一": 3950,
      "一一丂丁亀乀一一": 3951,
      "一一亀一一一丂丁": 3952,
      "一亀丐一丈一一一": 3953,
      "一丂一一一丐一一": 3954,
      "一亀一一亠丄一一": 3955,
      "一一一两丁": 3956,
      "一一丠一一予一一": 3957,
      "亁一一一一": 3958,
      "一一丠丁乀一一一": 3959,
      "一一亠一乀丄一一": 3960,
      "一丠丐一一亀一一": 3961,
      "一亨丄": 3962,
      "一一乀丁一丈丄一": 3963,
      "一丄丂一一丂一一": 3964,
      "一一一丁一乀丁一": 3965,
      "一一一一一两": 3966,
      "一一一亁一一丁一": 3967,
      "一両一一一一一一": 3968,
      "一么丁一": 3969,
      "一一一丁亀丄一一": 3970,
      "一一一丬一一一一": 3971,
      "一亀五": 3972,
      "一一乀丅一丈一一": 3973,
      "一一亠丒一": 3974,
      "一一一丐一一一丂": 3975,
      "一丠一一乀": 3976,
      "一丠两": 3977,
      "一一丅一一丅一一": 3978,
      "一乀丠一亀一一一": 3979,
      "一一一一丐上一一": 3980,
      "一丁一一丠一一一": 3981,
      "一一一上一一丂一": 3982,
      "一丠丐一一丈一一": 3983,
      "一一丐一一丠丐一": 3984,
      "一丠亀一一一一一": 3985,
      "一亀一丄一一一一": 3986,
      "一乐上一一": 3987,
      "亀丂一一一一一一": 3988,
      "一一一一一丘": 3989,
      "乖一一": 3990,
      "一一一乐丁": 3991,
      "一丠且一": 3992,
      "丁一丁一一": 3993,
      "一丈丑一": 3994,
      "一丠一一一一丠一": 3995,
      "一予丄一一": 3996,
      "一丠丄一一丐一一": 3997,
      "一亀丂一丄一一一": 3998,
      "一一一亊一一一一": 3999,
      "一一丂一亀丒一一": 4000,
      "一一丈一一一亁一": 4001,
      "一一一且一予一一": 4002,
      "一一丨丁乀一一一": 4003,
      "一一亐一一丐一一": 4004,
      "一一丐一亄一一一": 4005,
      "丐丠一一": 4006,
      "一一丄一乀丄一一": 4007,
      "一亀乀一一一丂一": 4008,
      "一亀一一亨一一一": 4009,
      "一一亥一一一一一": 4010,
      "一一乌": 4011,
      "一亀亂": 4012,
      "一一一一一一习一": 4013,
      "一一一一一丐一": 4014,
      "一丘一一一": 4015,
      "一一丈一亀丈一一": 4016,
      "一丠一一丠": 4017,
      "一一亠丂一丄一一": 4018,
      "一亀乀一丐一一一": 4019,
      "一一仂": 4020,
      "丒丁": 4021,
      "一一一丁一乊一一": 4022,
      "一乀一一乀丠一一": 4023,
      "一亀一一亐丂一一": 4024,
      "一一亀丅一": 4025,
      "丄丈一": 4026,
      "一一亠丁": 4027,
      "一一丄一亀且一一": 4028,
      "一一一一一乄": 4029,
      "一一一丄一亀乀一": 4030,
      "一一丨丈一一一一": 4031,
      "一一亠一一丄丂一": 4032,
      "一一丐丈一丄丂一": 4033,
      "一一一丂一亄一一": 4034,
      "一一丈丄乀丠一一": 4035,
      "一一丐一一丑一一": 4036,
      "一一亀一一丑一一": 4037,
      "亠一一一一": 4038,
      "一乀一一亀丂一一": 4039,
      "一一丄一一一一丁": 4040,
      "一一丠丈一丂一一": 4041,
      "一一丂丁一亀一一": 4042,
      "乐丈一一": 4043,
      "一一一一一丨丂一": 4044,
      "一一一丈丈": 4045,
      "一亀丂一丠一一一": 4046,
      "一一一丂一亠一一": 4047,
      "一一乀丂一丁一一": 4048,
      "一一一丒一丄一一": 4049,
      "一一五丂一一一一": 4050,
      "一一一乂一丠丂一": 4051,
      "一丈一一丨一一一": 4052,
      "一丐上一": 4053,
      "一亀乀一乀一一一": 4054,
      "一一丁一一丈丄一": 4055,
      "一一一亀乀一": 4056,
      "一一一一亐丈一一": 4057,
      "一乀一一一丈丄一": 4058,
      "一一亀丐一丐一一": 4059,
      "一一亀丑": 4060,
      "一云": 4061,
      "一一丂一丐丂一一": 4062,
      "一一丈一丐丁一一": 4063,
      "一乀一一一一乀一": 4064,
      "不一一一一": 4065,
      "一丐一一一一丐一": 4066,
      "一一一乐一予一一": 4067,
      "一一一且一三一一": 4068,
      "一乀一一一丅一一": 4069,
      "一一丐丄一丁一一": 4070,
      "一一亀丂一一丁一": 4071,
      "一一与一一一一一": 4072,
      "一一么一一丈一一": 4073,
      "一一乀丂亀丐一一": 4074,
      "一一一一一亄": 4075,
      "一一丐丈一亀一一": 4076,
      "一一一一一亩一一": 4077,
      "一亀丒一": 4078,
      "一一亀一乀且一一": 4079,
      "一丈丅一": 4080,
      "一一丄一乀丠一一": 4081,
      "一三一一一一一一": 4082,
      "一一丈一丠丁一一": 4083,
      "一一丐丈亀乀一一": 4084,
      "一一丠一丐丈一一": 4085,
      "一一一丐丠一一一": 4086,
      "一一一一一一个一": 4087,
      "一丄丂一亀一一一": 4088,
      "一一一一乀両一一": 4089,
      "一一亐一一乀一一": 4090,
      "一一一一亐上一一": 4091,
      "一一京": 4092,
      "一一丠丁亀一一一": 4093,
      "一亩": 4094,
      "丑丁一": 4095,
      "一一丈丐": 4096,
      "一一丄丈": 4097,
      "一一乂一乀一一一": 4098,
      "一一乀一且一一一": 4099,
      "一一且丄一一一一": 4100,
      "一一一丂一丨一一": 4101,
      "一一丈一一乀丠一": 4102,
      "一一丠一一丢一一": 4103,
      "一亀一一一丈丄一": 4104,
      "一丠丐一亀乀一一": 4105,
      "一一一一丈丐一一": 4106,
      "一一上一丄一一一": 4107,
      "一交丂一一": 4108,
      "一一么一一丠一一": 4109,
      "一一一丁一三一一": 4110,
      "一一一丅一丄一一": 4111,
      "乢一一": 4112,
      "丨丄一一": 4113,
      "一一仁": 4114,
      "一一丐丄一丂一一": 4115,
      "一一一丁一么一一": 4116,
      "一乀一丄一一一一": 4117,
      "一一丠一丠丅一一": 4118,
      "亠且一一": 4119,
      "一一丄乀一一一一": 4120,
      "一一一一一丒丁一": 4121,
      "一一一一亀乂一一": 4122,
      "一一乀两一一一一": 4123,
      "一一一丐丐一一一": 4124,
      "一一乐丂一乀一一": 4125,
      "一丩": 4126,
      "一一乐丐一一一一": 4127,
      "丂亀乀一": 4128,
      "一一丠丄一一丁一": 4129,
      "乐三一一": 4130,
      "一亀两一一一一一": 4131,
      "一一一一一乄丁一": 4132,
      "一一丠一亀丄一一": 4133,
      "一一且一一一丁一": 4134,
      "一一一丂一丠丐一": 4135,
      "一一乀丐一丄一一": 4136,
      "一一一一一仐一一": 4137,
      "一一两一一丄一一": 4138,
      "一乀丠一一乀一一": 4139,
      "一一丈一一亀乀一": 4140,
      "一亀丄一一丐一一": 4141,
      "一一丄一一丠丂一": 4142,
      "一一亀丂乀丁一一": 4143,
      "一一丠丁一丠一一": 4144,
      "乀丠一一一": 4145,
      "一一一丂一一丂丁": 4146,
      "一一丨一一一丐一": 4147,
      "両一丈一一": 4148,
      "一一亀上一丐一一": 4149,
      "一一乀丁亐一一一": 4150,
      "一一一丈丂一": 4151,
      "一一丄一予一一一": 4152,
      "一一一一一一亂一": 4153,
      "一乀一一乐丂一一": 4154,
      "一一一一乀丕一一": 4155,
      "一一乐一乀一一一": 4156,
      "一一丐一乀丄一一": 4157,
      "一一丐一亐丂一一": 4158,
      "一一一一一亅一一": 4159,
      "一一一么一一丂一": 4160,
      "一一丄一亀丐一一": 4161,
      "一乀一一一丠": 4162,
      "一一一一一乂": 4163,
      "一丠丁一一丁一一": 4164,
      "一一一买": 4165,
      "一一亀丘": 4166,
      "乌一一": 4167,
      "乀丠一一一一一一": 4168,
      "一一乐一一丂丁一": 4169,
      "一一乀丄一一丁一": 4170,
      "一一亀丄一丂一一": 4171,
      "一一一乀乀一一一": 4172,
      "一一一丅亀丂一一": 4173,
      "东一": 4174,
      "丈一丄一一": 4175,
      "一一乀一亨一一一": 4176,
      "一一亐一一一丂一": 4177,
      "一一丈丂一丁一一": 4178,
      "一一丈一一両一一": 4179,
      "一一亀丄一両一一": 4180,
      "一一丠丄亀一一一": 4181,
      "一一丂一乀丈一一": 4182,
      "一一一丁丐丈一一": 4183,
      "一一乀一一乊一一": 4184,
      "一一一丨一丈一一": 4185,
      "一亀乀一一一丈一": 4186,
      "一一丈丄亀丂一一": 4187,
      "一一上一丠一一一": 4188,
      "一一丨丁一丠一一": 4189,
      "一一亀一一乀丠一": 4190,
      "一丠丅一": 4191,
      "一亀乀一丄一一一": 4192,
      "亄丈一一": 4193,
      "一一丠丁乀丈一一": 4194,
      "一丠一一一且一一": 4195,
      "一一丄丂乀丁一一": 4196,
      "一一一丠乀一一一": 4197,
      "一一亠丠一一一一": 4198,
      "一丠上一一一一一": 4199,
      "一一亀丂一丐丈一": 4200,
      "一一上一一亀一一": 4201,
      "一一一丂一上一一": 4202,
      "一一丈乀一一一一": 4203,
      "一一丐丂乀一一一": 4204,
      "一一丂一一丄丂一": 4205,
      "一一丠丕一一一一": 4206,
      "一丬": 4207,
      "一一一乐丂": 4208,
      "一一丠丐一一丄一": 4209,
      "一丐一一乀": 4210,
      "乁一一一一一": 4211,
      "一一亁一丐一一一": 4212,
      "一丁一一亀一一一": 4213,
      "一一一丈一丕一一": 4214,
      "一丐一一且一一一": 4215,
      "一丈一一一一丄一": 4216,
      "一丠亀": 4217,
      "一一丄丂丠丐一一": 4218,
      "一一丠丁一亀一一": 4219,
      "一一丨丅一一一一": 4220,
      "一一一乀一亠一一": 4221,
      "一一丈丁一丐一一": 4222,
      "一一一丘一": 4223,
      "一一一一亠丒一一": 4224,
      "一丠丐一一一": 4225,
      "一一一一一亰一一": 4226,
      "一亀乒一一一一一": 4227,
      "一一丐丂一一丂一": 4228,
      "一一一上一一丁一": 4229,
      "一一丈一一乀丄一": 4230,
      "习丄一一": 4231,
      "一一丨一一一丂一": 4232,
      "一亀乀一一亀一一": 4233,
      "一一丨一丈一一一": 4234,
      "一一一丠一一亁一": 4235,
      "一一乀乂": 4236,
      "一乀丈一一丁一一": 4237,
      "一亐丒": 4238,
      "一一丑一亀一一一": 4239,
      "一乀一一么丁一一": 4240,
      "一一丨一一上一一": 4241,
      "一一一一亠丐一一": 4242,
      "一亀予": 4243,
      "一亀一一乀丁一一": 4244,
      "一一交一一丄一一": 4245,
      "一一亄一一丈一一": 4246,
      "一一丠一一亀丂一": 4247,
      "丈丈一一": 4248,
      "一一乀一一乄一一": 4249,
      "一一一一一一丩一": 4250,
      "一一丠丂乀丁一一": 4251,
      "丈一一一一一一": 4252,
      "一一一丁一一丅一": 4253,
      "一一乀一乀上一一": 4254,
      "一一一乊一": 4255,
      "一丐丈一一乀一一": 4256,
      "一一丈丂亀一一一": 4257,
      "亀么一一": 4258,
      "丂一丄一一": 4259,
      "一一亠一一丅一一": 4260,
      "一一亠丄一亀一一": 4261,
      "一一丂一亀上一一": 4262,
      "亴一一": 4263,
      "丐丢一一": 4264,
      "一一丐丠": 4265,
      "一一乐丁一丂一一": 4266,
      "一一丠丁丐丁一一": 4267,
      "一乀一丂一一一一": 4268,
      "一一一丄丄一": 4269,
      "一丠一一两一一一": 4270,
      "一一一乁一": 4271,
      "一什一一一": 4272,
      "乂一一一": 4273,
      "一一丈三": 4274,
      "一乀丑一一一一一": 4275,
      "一一丠丈一丄一一": 4276,
      "一一一专": 4277,
      "一一丁一丈丄一一": 4278,
      "一一丈一么丁一一": 4279,
      "一一一一亀个一一": 4280,
      "丠且一一": 4281,
      "一一两一一丐一一": 4282,
      "一一丠亀一一一一": 4283,
      "一一亁一乀丠一一": 4284,
      "一一丠丐一亁一一": 4285,
      "互一": 4286,
      "一一丂一一丐丁一": 4287,
      "一丂丄一": 4288,
      "一乀丈一一丈一一": 4289,
      "一一丄丂一一丈一": 4290,
      "一一什丈一一一一": 4291,
      "一一丠一亀丈一一": 4292,
      "丢一一一一一": 4293,
      "一一万一一一一一": 4294,
      "一一一一乀严一一": 4295,
      "一一一一一亡一一": 4296,
      "东一一一": 4297,
      "丨丅一一": 4298,
      "一一乐一亀丂一一": 4299,
      "一亀亠": 4300,
      "一一一丂乀丄一一": 4301,
      "一亀乂一一": 4302,
      "一乀乄": 4303,
      "一一丁一乀丅一一": 4304,
      "一一一亐丂一": 4305,
      "一乀一一亠一一一": 4306,
      "一一丐丂一丠一一": 4307,
      "一丄一一一亀一一": 4308,
      "一丈丄一一亀一一": 4309,
      "一丈丐一一一一一": 4310,
      "亀乔一一": 4311,
      "一一一一一一什一": 4312,
      "一一丠一一乀丠一": 4313,
      "一一习丄一一一一": 4314,
      "一丂一一一亀一一": 4315,
      "一一一一一万一一": 4316,
      "一乀丁一一亀一一": 4317,
      "一一丈一一么一一": 4318,
      "一一丑一一亀一一": 4319,
      "丁亀一一一": 4320,
      "一一丐丠一": 4321,
      "一一亐一乀一一一": 4322,
      "一一丑一一丄一一": 4323,
      "一一一一一丁丄一": 4324,
      "严丂一": 4325,
      "一一一丁一丢一一": 4326,
      "一一丂一一亁一一": 4327,
      "一一丰丂一一一一": 4328,
      "一一一七一": 4329,
      "一一乀一一亠一一": 4330,
      "一一一一一两丂一": 4331,
      "一乀一一一亀": 4332,
      "一一一丈一亄一一": 4333,
      "一一一両一乀一一": 4334,
      "一一一亠一": 4335,
      "一丠一一亀乀一一": 4336,
      "乊丄一": 4337,
      "一亀丐一一丄一一": 4338,
      "亠丐一": 4339,
      "一一一一一互一一": 4340,
      "一一一丩一一丁一": 4341,
      "一一亀丄乀丂一一": 4342,
      "一乀丠一丠一一一": 4343,
      "一一一丄一乊一一": 4344,
      "一一乀丁亠一一一": 4345,
      "一丈一一一一丈一": 4346,
      "一一一一乐丅一一": 4347,
      "一一一三一丐一一": 4348,
      "一一一么一且一一": 4349,
      "一丐丒": 4350,
      "一亠丄一": 4351,
      "一一丄一一两一一": 4352,
      "一一丠丄一一丐一": 4353,
      "一一一予一乀一一": 4354,
      "丰丂一一": 4355,
      "一一上一": 4356,
      "一一一一一一乀丠": 4357,
      "一亨一一一一一一": 4358,
      "一一丂丁亠一一一": 4359,
      "一一一两一丢一一": 4360,
      "一一一一一両": 4361,
      "一一丢一一一丁一": 4362,
      "一一乀丈一丁一一": 4363,
      "一一一一一上丁一": 4364,
      "一一丐一一一上一": 4365,
      "一一丁一且一一一": 4366,
      "一亠一一一丂一一": 4367,
      "一丆一一一一一一": 4368,
      "一一丈一亄一一一": 4369,
      "一丠丒一": 4370,
      "一一丠一一丩一一": 4371,
      "一一丐丈一丠一一": 4372,
      "一一一且一一丐一": 4373,
      "一一一临一一一一": 4374,
      "一丐三一一一一一": 4375,
      "一一丁一一一亀一": 4376,
      "一一一一一东一一": 4377,
      "一一一丄一亠一一": 4378,
      "一一乀丆": 4379,
      "一一乀丄亀丂一一": 4380,
      "一丠丐一一丠一一": 4381,
      "一一一一丈丅一一": 4382,
      "一一一一亀一丂一": 4383,
      "一争": 4384,
      "一一丠丐一丈丄一": 4385,
      "一一丅一一乀一一": 4386,
      "一一上丂一一一一": 4387,
      "一一丈一乄丁一一": 4388,
      "一一一亄一乀一一": 4389,
      "一一一丂一丕一一": 4390,
      "严一一一一": 4391,
      "亁丄一一": 4392,
      "一乀丒一一一一一": 4393,
      "一一丐丈一丈一一": 4394,
      "一一亀亐": 4395,
      "一一丂一亀丄一一": 4396,
      "一一丐丈一乀丠一": 4397,
      "一一乐一一且一一": 4398,
      "亄一一一一一": 4399,
      "丐三一一": 4400,
      "一一丈丂一一": 4401,
      "一一亀丠一丈一一": 4402,
      "一一一丠一丨一一": 4403,
      "一一丄一一严一一": 4404,
      "一一丐丈一丅一一": 4405,
      "一一乀丄乀一一一": 4406,
      "一一丂丄": 4407,
      "一一一丁丠丂一一": 4408,
      "一一丄丁亀一一一": 4409,
      "乀両一一": 4410,
      "一一一丒丁": 4411,
      "一一丠一一两一一": 4412,
      "乀丨一一": 4413,
      "一亀丐一丄一一一": 4414,
      "一丨丁一一一一一": 4415,
      "一丈丄一一丄丂一": 4416,
      "一乀丁一一丨一一": 4417,
      "一一且一一丅一一": 4418,
      "一一一三亀丄一一": 4419,
      "一一一丌一": 4420,
      "一一一丐一一一": 4421,
      "一一一丨丁一": 4422,
      "一丠一一一丅一一": 4423,
      "一亠一一亀一一一": 4424,
      "一一一一丁丄一一": 4425,
      "一一乐一一一上一": 4426,
      "丁丄一": 4427,
      "一丠一丂一一一一": 4428,
      "一一一一一与一一": 4429,
      "一两丂": 4430,
      "一一丈一丠丂一一": 4431,
      "一亀丂一亀丂一一": 4432,
      "一一丨一丠一一一": 4433,
      "一一丈一一一一丁": 4434,
      "一一一両一一丄一": 4435,
      "一亀丈一一乀一一": 4436,
      "一一乐一丠丂一一": 4437,
      "一一亀丈亀一一一": 4438,
      "一一亁一一一丄一": 4439,
      "一一一一一一亀丄": 4440,
      "一丸": 4441,
      "一一一一一乒丁一": 4442,
      "一一丨丅一": 4443,
      "临一": 4444,
      "一一乀上亀一一一": 4445,
      "一亀一一一丄丂一": 4446,
      "一一亀一一丂丁一": 4447,
      "一一一乕": 4448,
      "一一一一一丂丈一": 4449,
      "一一乀丈亀乀一一": 4450,
      "両一一一一一": 4451,
      "一一乀一一丐丁一": 4452,
      "一一乀丂丠丁一一": 4453,
      "一亀一一一一亀一": 4454,
      "一丐丈一丄一一一": 4455,
      "一乀丕": 4456,
      "乀丂": 4457,
      "一一丄一一三一一": 4458,
      "一一一丅亀丠一一": 4459,
      "一亀一一一乀丠一": 4460,
      "一予丄一": 4461,
      "一一亁一一一丁一": 4462,
      "一一亐一丠一一一": 4463,
      "一一乀丁一上一一": 4464,
      "一丨丅一一": 4465,
      "一乀丨一": 4466,
      "一一亀丂乀丐一一": 4467,
      "一一丐一一亀乀一": 4468,
      "一一丈一丠上一一": 4469,
      "一一一一亀乊一一": 4470,
      "一一乐上一一一一": 4471,
      "一一乀乁一一一一": 4472,
      "亁一一一一一": 4473,
      "一一亀一一亄一一": 4474,
      "一一一一一一严一": 4475,
      "乐上一一": 4476,
      "一一丒一一丂一一": 4477,
      "一一一一乄": 4478,
      "一一丂丁一一亁一": 4479,
      "丠丕一一": 4480,
      "一一一丠丁丐一一": 4481,
      "一亀一一么一一一": 4482,
      "一一一一亨丂一一": 4483,
      "一一丐一一亐一一": 4484,
      "一一丈丁丠一一一": 4485,
      "一一丐丁亠一一一": 4486,
      "一一乀丠一丄一一": 4487,
      "亀丠": 4488,
      "一亀一一丠丂一一": 4489,
      "一乀一一丠": 4490,
      "一一一丅丠一一一": 4491,
      "一丐丈一一丄一一": 4492,
      "一亐丐": 4493,
      "一丄丂一丄一一一": 4494,
      "一乀乐": 4495,
      "一一丐一一乂一一": 4496,
      "一一丄丁一一": 4497,
      "一一丂一乔一一一": 4498,
      "一一亀乔一": 4499,
      "三丁一": 4500,
      "一一乀一乀丄一一": 4501,
      "一一亠一一一丐一": 4502,
      "一乀七一一一一一": 4503,
      "一一丐一且一一一": 4504,
      "一一亄一一乀一一": 4505,
      "一一亀乄一一一一": 4506,
      "一一丨一乀丁一一": 4507,
      "乘丁一一": 4508,
      "一乀丠一丈一一一": 4509,
      "一一一乀亀一一一": 4510,
      "一亀丅一一一一一": 4511,
      "一一両一丐丁一一": 4512,
      "一一一一一一丠丁": 4513,
      "一一丂一一丒一一": 4514,
      "一一丐丁一丂一一": 4515,
      "一一亀丐一亁一一": 4516,
      "一一丘丁一一一一": 4517,
      "京一一": 4518,
      "一且丂一一一一一": 4519,
      "一一一丑一亀一一": 4520,
      "一一一丠一丂丁一": 4521,
      "一乀七": 4522,
      "一一一一丁一丠一": 4523,
      "一一一亠一一丁一": 4524,
      "丢丂一": 4525,
      "一一丈一予一一一": 4526,
      "一乀一一一丠丐一": 4527,
      "一一一丁一丄丂一": 4528,
      "一丠一一乐一一一": 4529,
      "一一一上一丅一一": 4530,
      "一一一丂一三一一": 4531,
      "一一一三一丄一一": 4532,
      "一一丄丂一亀乀一": 4533,
      "一一丐七一一一一": 4534,
      "一一亀且一丁一一": 4535,
      "一一一丁一个一一": 4536,
      "一一一一丂一丐一": 4537,
      "一一一一么丄一一": 4538,
      "一一一上乀一一一": 4539,
      "一一一两一丈一一": 4540,
      "一一丠丂丠一一一": 4541,
      "丂乀一一一": 4542,
      "一一一一一丠乀一": 4543,
      "一一亨一一": 4544,
      "一一丨一": 4545,
      "一一丠丄乀丠一一": 4546,
      "一一一一一一亠": 4547,
      "丁乀一一一": 4548,
      "一一乀一一亁一一": 4549,
      "一一乀三一一丁一": 4550,
      "一一丐一一亀丈一": 4551,
      "一一一一丠丒一一": 4552,
      "一一一一一予丂一": 4553,
      "一一丄一一丕一一": 4554,
      "一亠丒一一一一一": 4555,
      "一一乀丂一乀一一": 4556,
      "一一丨一一亁一一": 4557,
      "丄亀": 4558,
      "丁一丄一一": 4559,
      "一一丄一丐丅一一": 4560,
      "一一乐一一一丄一": 4561,
      "一一乀丂一一丁一": 4562,
      "一一丠一丠丂一一": 4563,
      "一一一与一一一一": 4564,
      "串一一": 4565,
      "一一丐一一一丂丁": 4566,
      "一一丂一丠丂一一": 4567,
      "一一丠丂一丄一一": 4568,
      "一一乂一一丄一一": 4569,
      "一一一一一丸一一": 4570,
      "一一一丈丐一一一": 4571,
      "一一一亠一一丄一": 4572,
      "一一一上一丈一一": 4573,
      "一一丐丈一一丈一": 4574,
      "一一一丄一一亁一": 4575,
      "一一亀丠一一": 4576,
      "一丠丩": 4577,
      "一丨丁": 4578,
      "一一亀一一予一一": 4579,
      "一乀丩一一一一一": 4580,
      "一一一丅乀丠一一": 4581,
      "一一一丂丠丅一一": 4582,
      "一一丠丅乀一一一": 4583,
      "一一一丈一丒一一": 4584,
      "且丂一一": 4585,
      "乀七一一": 4586,
      "一一亀丑一一一一": 4587,
      "下一一一一": 4588,
      "一丐丠一": 4589,
      "一一一丠一丒一一": 4590,
      "一亐上一": 4591,
      "仄一一": 4592,
      "一一一亐丂": 4593,
      "一乄丂一": 4594,
      "一一一一一乐丄一": 4595,
      "一丠丐一乀一一一": 4596,
      "一一一且一乀一一": 4597,
      "一一一丨一一丂一": 4598,
      "一一丁一丠丄一一": 4599,
      "一一一一乀一丁一": 4600,
      "丐一一丂一": 4601,
      "一一一一亀七一一": 4602,
      "一一一丠一丐丈一": 4603,
      "一一一且丁一一一": 4604,
      "一一亀丄亐一一一": 4605,
      "一丐丈一一一": 4606,
      "一一丠丆一一一一": 4607,
      "一一丒一丠一一一": 4608,
      "一一五一一丐一一": 4609,
      "一一一並": 4610,
      "一一丄丂一一丁一": 4611,
      "乨丁一": 4612,
      "一乀三一": 4613,
      "一一一亄一丈一一": 4614,
      "一一一三丠丁一一": 4615,
      "一一一丐一一一丁": 4616,
      "一一亐一丠丄一一": 4617,
      "一一亩一一": 4618,
      "京一一一": 4619,
      "一一予丁一一一一": 4620,
      "一一乀丐一丈一一": 4621,
      "一一一么一三一一": 4622,
      "一一一一乐三一一": 4623,
      "一一一一乀两一一": 4624,
      "一一一三一乂一一": 4625,
      "一一丈丁一亀一一": 4626,
      "一一乀一五一一一": 4627,
      "一一乀严一一一一": 4628,
      "一亀一一丠丐一一": 4629,
      "一乀乒": 4630,
      "一一丁一两一一一": 4631,
      "一一亀么一": 4632,
      "一一亠一一丨一一": 4633,
      "一一丁一一三一一": 4634,
      "乁丂一一": 4635,
      "一一丁一一一": 4636,
      "一一亀一丁一一一": 4637,
      "一一一丕一丠一一": 4638,
      "一一乀一乀丈一一": 4639,
      "一丈丄一一亁一一": 4640,
      "一一丄一亀": 4641,
      "一一一上亀乀一一": 4642,
      "一一一丂一两一一": 4643,
      "一一一上一乁一一": 4644,
      "乀予一一": 4645,
      "一亀一一亠": 4646,
      "一亀一一亠丂一一": 4647,
      "一一一丒一三一一": 4648,
      "一一一一一一乀丂": 4649,
      "一一一一么丅一一": 4650,
      "一一丠丄一乀一一": 4651,
      "一一一丅一丠丐一": 4652,
      "一一丁一丈丁一一": 4653,
      "亄一一一一": 4654,
      "一亐丈一一一一一": 4655,
      "一一一丄亀丈一一": 4656,
      "一一丂一亄一一一": 4657,
      "一一丐一一一亁一": 4658,
      "一一丁一一丂丁一": 4659,
      "一亀一一一乀丁一": 4660,
      "一一丠一一一一丂": 4661,
      "一一丠丄一亁一一": 4662,
      "一乄丂": 4663,
      "一一丁一一予一一": 4664,
      "一丠一一丨丁一一": 4665,
      "一一亀一丐丁一一": 4666,
      "一一一丁一一一丂": 4667,
      "仐丄一一": 4668,
      "一一一一丬一一一": 4669,
      "一一丕一一": 4670,
      "一一丈一乀丄一一": 4671,
      "一一一丒乀丂一一": 4672,
      "一一丐丒": 4673,
      "一一乀一予一一一": 4674,
      "一一亀丈一丅一一": 4675,
      "亅一": 4676,
      "一一乄一一一丂一": 4677,
      "一一中": 4678,
      "一一一一一一一丆": 4679,
      "一一乀一一丑一一": 4680,
      "一一一一两": 4681,
      "一一一一一一亀丁": 4682,
      "丬一": 4683,
      "乀两一一": 4684,
      "一一亀乀一一丂一": 4685,
      "丑丈一": 4686,
      "一丁一一一丂一一": 4687,
      "一一丂一予丂一一": 4688,
      "一一一两亀丄一一": 4689,
      "一一丈一亀丄一一": 4690,
      "亘一一": 4691,
      "一一丈一一丩一一": 4692,
      "一乂丁": 4693,
      "一一一丂丠丄一一": 4694,
      "一丠丨": 4695,
      "一一一丁亐丂一一": 4696,
      "一亐上一一一一一": 4697,
      "一一一一一么丄一": 4698,
      "一一丠丄乀丈一一": 4699,
      "一一乖": 4700,
      "一一一一一买一一": 4701,
      "一一丄一丐丁一一": 4702,
      "一一一乐丂一": 4703,
      "一一丵": 4704,
      "一一丁一乀丂一一": 4705,
      "一一丂一丄丂一一": 4706,
      "一一丠一丠丄一一": 4707,
      "一一乀丁一丂丁一": 4708,
      "一一丠丈一丁一一": 4709,
      "一一一亠一乀一一": 4710,
      "一一一亀亀一一一": 4711,
      "一亐丄": 4712,
      "一业": 4713,
      "一一一亠丂一一一": 4714,
      "一一丈一乔一一一": 4715,
      "一一一丄丁一": 4716,
      "一亠一一一丐一一": 4717,
      "一一丠乀": 4718,
      "一一丂一予一一一": 4719,
      "一一丐一亀丈一一": 4720,
      "一一一么一乀一一": 4721,
      "一一乂一一丠一一": 4722,
      "一丁一一一丁一一": 4723,
      "一一丂丁丐丈一一": 4724,
      "一一一乊一丐一一": 4725,
      "丢丐一": 4726,
      "一一一丨一丐丁一": 4727,
      "一丂丂一一": 4728,
      "一一一亀一一乀一": 4729,
      "一一丈一两一一一": 4730,
      "一乄丂一一": 4731,
      "一一一丁丠": 4732,
      "一一一丈丈一一一": 4733,
      "亩一": 4734,
      "一亀一一予一一一": 4735,
      "丒丂一": 4736,
      "一一亨一一丁一一": 4737,
      "一一一一一一一七": 4738,
      "一一乀三一丂丁一": 4739,
      "丨丐一": 4740,
      "一一一亁一乀一一": 4741,
      "一丠一丁一一一一": 4742,
      "仔一一": 4743,
      "乨丂一一": 4744,
      "一一一丐一亄一一": 4745,
      "一一丠一亀乀一一": 4746,
      "一一一丄一亁一一": 4747,
      "丑一一一": 4748,
      "一一亀一亀": 4749,
      "一一丐丂亀乀一一": 4750,
      "一一乀丠一丂丁一": 4751,
      "一一习丄": 4752,
      "一一一丁亀丨一一": 4753,
      "一一一丁乀丠一一": 4754,
      "一一一乁一丐一一": 4755,
      "一丠丄一丠一一一": 4756,
      "一一予一一丁一一": 4757,
      "一一亀一么丁一一": 4758,
      "一一丄一交一一一": 4759,
      "一一亀丂一丄丂一": 4760,
      "一一乐一一一丠一": 4761,
      "一一亀乂一": 4762,
      "一一事": 4763,
      "一一一一一乂丁一": 4764,
      "一一一丑一丁一一": 4765,
      "一一並": 4766,
      "丈丈": 4767,
      "一一一亄一": 4768,
      "一乀一一一丄丂一": 4769,
      "一一乐一": 4770,
      "一一丁一一亀乀一": 4771,
      "一一亁一一一丐一": 4772,
      "一一一丂亀乀一一": 4773,
      "一一乀丈一丂丁一": 4774,
      "一一丠乀一": 4775,
      "一一丨一乄一一一": 4776,
      "一丈丄一亀一一一": 4777,
      "一一丒一一丈一一": 4778,
      "亠丁一": 4779,
      "一乀一一一亠一一": 4780,
      "一一丄一乀丂一一": 4781,
      "一一一丁一乒一一": 4782,
      "一一丠丁一一丄一": 4783,
      "一丄丂一一丈一一": 4784,
      "一一乀一一三一一": 4785,
      "一亀丂一一丁一一": 4786,
      "一一一一什丁一一": 4787,
      "一一一一丁一丐一": 4788,
      "一丠一一一丄丂一": 4789,
      "一亀丂一乀一一一": 4790,
      "一一乀丁丠丈一一": 4791,
      "一一亀丂丐一一一": 4792,
      "一一一亐一丒一一": 4793,
      "一丠一一亀丂一一": 4794,
      "一丐丠": 4795,
      "一一一丄一丈丁一": 4796,
      "一一乀丈一一丂一": 4797,
      "一一一么丂一一一": 4798,
      "一丈丄一乀一一一": 4799,
      "一一丈亀一一一一": 4800,
      "一一丐一丐丁一一": 4801,
      "一一乀丄一丈一一": 4802,
      "一一丠七": 4803,
      "一一一丨一丒一一": 4804,
      "一一一一一且丂一": 4805,
      "一一丐一丠": 4806,
      "一一二一一一一一": 4807,
      "一一亁一乐一一一": 4808,
      "一一丐丄一一": 4809,
      "一亠丈": 4810,
      "一一一一乐丈一一": 4811,
      "一一丐丄亀一一一": 4812,
      "一一亀一一一一丂": 4813,
      "一丐乀一一一一一": 4814,
      "一交丂一": 4815,
      "一一一丐一严一一": 4816,
      "一丠一一乀丁一一": 4817,
      "一一一上一一丠一": 4818,
      "一一一一一丄丐一": 4819,
      "一一丈一一丒一一": 4820,
      "一一丁一丐丁一一": 4821,
      "习丁一": 4822,
      "一一么一丠一一一": 4823,
      "一一亀丒一丄丂一": 4824,
      "一丄丈一一": 4825,
      "一一一一一亠丁一": 4826,
      "一一五一丠一一一": 4827,
      "一仈": 4828,
      "一一亀丂丠丐一一": 4829,
      "一一両一一一丁一": 4830,
      "一一一一一两丁一": 4831,
      "一丐丈一一丐一一": 4832,
      "一丈丄一一丠一一": 4833,
      "一一一丄乀丈一一": 4834,
      "丢一一一": 4835,
      "一一丠丁亐一一一": 4836,
      "一一一丅一一丈一": 4837,
      "一一亀一一一且一": 4838,
      "一一一乘一一一一": 4839,
      "一乀丂一一丈一一": 4840,
      "业一一一一": 4841,
      "一一乀三一丈一一": 4842,
      "一一一両一丠一一": 4843,
      "一一亀丐一丂一一": 4844,
      "一一亀乐一": 4845,
      "一一亀七": 4846,
      "一一亀亂一一一一": 4847,
      "丅丁一": 4848,
      "一一丠一亠丄一一": 4849,
      "一一一乀一一一": 4850,
      "一一一丠一一一": 4851,
      "一亀习": 4852,
      "一乀両一": 4853,
      "一一一一交": 4854,
      "一丠三一一一一一": 4855,
      "一一一丈一一亁一": 4856,
      "一一丐丂丠丄一一": 4857,
      "一一丠丐一一丂一": 4858,
      "一一亐一丨一一一": 4859,
      "丂丠一一一": 4860,
      "一一一亢一一一一": 4861,
      "丂丈一": 4862,
      "丂一一一一一一一": 4863,
      "一乀丠一一一丂一": 4864,
      "丁丈一一": 4865,
      "一一丄一且一一一": 4866,
      "一一什丈": 4867,
      "一一一一丠亀一一": 4868,
      "一一亠丄一亁一一": 4869,
      "一一一仄": 4870,
      "一一丁一亐一一一": 4871,
      "一一丠一一亄一一": 4872,
      "一一丐一乀且一一": 4873,
      "一一丠一一丑一一": 4874,
      "一一丁一一亀丂一": 4875,
      "一且丂一一": 4876,
      "一一両一丠一一一": 4877,
      "一一一丂一丈丄一": 4878,
      "一一一一丐三一一": 4879,
      "一一一丄乀上一一": 4880,
      "一一一乀丠一一一": 4881,
      "一一且一亠一一一": 4882,
      "一一乀个一一一一": 4883,
      "一亀丅": 4884,
      "一亀乀一丈一一一": 4885,
      "一一丅一": 4886,
      "什丁一一": 4887,
      "一一一东一一一一": 4888,
      "一丠一一一丐丈一": 4889,
      "一一乀丂么一一一": 4890,
      "丩一一一一": 4891,
      "一一一両一丂丁一": 4892,
      "一亀丂一一丠一一": 4893,
      "一一一么丂": 4894,
      "什上一一": 4895,
      "一一一丄一乀丠一": 4896,
      "一一乀一一乔一一": 4897,
      "一一丠一一丠丁一": 4898,
      "一一乀丐一丂一一": 4899,
      "一一一丁一亁一一": 4900,
      "一一丁一丠丐一一": 4901,
      "一一一且亀一一一": 4902,
      "一一一且一亁一一": 4903,
      "一一丐丂一一丁一": 4904,
      "一一一丁亠丈一一": 4905,
      "一一乀一丠": 4906,
      "一乀丁一乀丁一一": 4907,
      "一一乀丈亀丐一一": 4908,
      "亀丈一": 4909,
      "一一一一一么丂一": 4910,
      "亡一": 4911,
      "一一乀一丠丅一一": 4912,
      "一一一丁一亀乀一": 4913,
      "一一丂丁一一丂一": 4914,
      "丂一亀一一": 4915,
      "一一亀丒一丐一一": 4916,
      "一乀丄一一丠一一": 4917,
      "丂一一一亁一": 4918,
      "一乀一一乐丁一一": 4919,
      "一一且一": 4920,
      "一亀一一亀丄一一": 4921,
      "一一亐丂丠一一一": 4922,
      "丂一丂一一": 4923,
      "一一一乀一一亀一": 4924,
      "一亀乀一丠丐一一": 4925,
      "一一一一一交丂一": 4926,
      "一亄丂一一一一一": 4927,
      "一乀丠一乐一一一": 4928,
      "一一一丈一丂丁一": 4929,
      "一一丐亀一一一一": 4930,
      "一一亠一乐一一一": 4931,
      "一一丢一一丠一一": 4932,
      "一一一丂一乄一一": 4933,
      "一一亀一丈丄一一": 4934,
      "一一一丅一一丂一": 4935,
      "一一一丠丠一": 4936,
      "一一一一一一一三": 4937,
      "一一亠丄一丄一一": 4938,
      "一一丒一丐一一一": 4939,
      "一一一一丘": 4940,
      "一一乀一一亀乀一": 4941,
      "一一乀丌一一一一": 4942,
      "一丐丈一乀丠一一": 4943,
      "一一丠丅乀上一一": 4944,
      "一丠一一么一一一": 4945,
      "一一一一亄丂一一": 4946,
      "一一亀一亀丈一一": 4947,
      "一一亀么一一一一": 4948,
      "一丄一一一一丄一": 4949,
      "一一亀丈一一丂一": 4950,
      "一亨丄一一": 4951,
      "一一亀一亠丄一一": 4952,
      "一亊": 4953,
      "一一乀丠一丐丈一": 4954,
      "一一乄一一乀一一": 4955,
      "一丠丐一一一丁一": 4956,
      "一一一丄一丩一一": 4957,
      "亀乐一一": 4958,
      "一一丨丈一丂一一": 4959,
      "乂一一一一一": 4960,
      "一一丁丠一一一一": 4961,
      "一一丐一乐丂一一": 4962,
      "亀亀一一一一一一": 4963,
      "一一一亀一乐一一": 4964,
      "一一亠丠一丈一一": 4965,
      "一一一两一丒一一": 4966,
      "一一乀亀": 4967,
      "一一亀丂一一丐一": 4968,
      "一一一一亀一丄一": 4969,
      "一一丈一一个一一": 4970,
      "一一亠一一亁一一": 4971,
      "一一丐一一三一一": 4972,
      "一一乀一一么一一": 4973,
      "一一丨一丐丁一一": 4974,
      "一一么一丐一一一": 4975,
      "一一仄一一一一一": 4976,
      "一一一丂一丂丁一": 4977,
      "一一且丄一丁一一": 4978,
      "一一丂一丠丁一一": 4979,
      "一一丈丠": 4980,
      "一丐丅一一一一一": 4981,
      "一一一一一丠一": 4982,
      "一一丐一丈丄一一": 4983,
      "一丠一一一乀": 4984,
      "一一亀一亀丐一一": 4985,
      "丁丈一": 4986,
      "一一一丄一一一丂": 4987,
      "一一严一一": 4988,
      "一一亐丂丠丅一一": 4989,
      "一一一一一一丂": 4990,
      "一亠丈一一一一一": 4991,
      "一一么丁一一": 4992,
      "一一一丅一丈丄一": 4993,
      "一一上一亀丂一一": 4994,
      "一一丠丐一上一一": 4995,
      "一一一丄一丄丂一": 4996,
      "一一一一一一丐丁": 4997,
      "一一亀一亀乀一一": 4998,
      "一一一一丁一乀一": 4999,
      "一一丄一丠丂一一": 5000,
      "一一丈一亀": 5001,
      "一一一亄一乀丄一": 5002,
      "一丄一一一一丂一": 5003,
      "一一亀一一乀丁一": 5004,
      "一一丠丄乀丁一一": 5005,
      "一一乀乁一丐一一": 5006,
      "一亀丐一一亀一一": 5007,
      "一一丐一丠上一一": 5008,
      "一一一万": 5009,
      "一一丠一亀": 5010,
      "丁丐丈一": 5011,
      "一一予一乐一一一": 5012,
      "一一三一一丁一一": 5013,
      "一一一一一丁丈一": 5014,
      "一一乐丐一丄一一": 5015,
      "一亀七一一一一一": 5016,
      "一一一丩一丂一一": 5017,
      "一上丁一": 5018,
      "一亠丁一一一一一": 5019,
      "一一乀一乀": 5020,
      "一一乂一一一丂一": 5021,
      "一义": 5022,
      "亂丄一一": 5023,
      "一一一仠": 5024,
      "一一一丠丐一一一": 5025,
      "一一両一一丐一一": 5026,
      "一丄丂一一乀一一": 5027,
      "一一一丁一丐丁一": 5028,
      "一一丠丂一丑一一": 5029,
      "一交一一一一一一": 5030,
      "一一亠且一一一一": 5031,
      "一亠一一一丄一一": 5032,
      "一一一一一丌": 5033,
      "一一一丈乀丁一一": 5034,
      "一一一一一乀一": 5035,
      "一一丠一亐丂一一": 5036,
      "一一上丂亀一一一": 5037,
      "一一丐一一两一一": 5038,
      "一么丅一": 5039,
      "一亀乀一一丈丄一": 5040,
      "一一两一丈一一一": 5041,
      "一丠丕一": 5042,
      "一丠丐一丐一一一": 5043,
      "一一丠丂一丅一一": 5044,
      "一一一丐一个一一": 5045,
      "一一乀丁一乐一一": 5046,
      "一一丐丂丠丐一一": 5047,
      "临丁一一": 5048,
      "一一丂一丠丐一一": 5049,
      "一一一丈一一丈丄": 5050,
      "一一一丣一一一一": 5051,
      "一一亁一一丐丈一": 5052,
      "一一丐丂亀丂一一": 5053,
      "一一乀一一一丅一": 5054,
      "一亀乀一亠一一一": 5055,
      "一一乀丈亀丂一一": 5056,
      "一一一一一一一丌": 5057,
      "一一丂一亀": 5058,
      "一一両一一丂一一": 5059,
      "一一一上丁一一一": 5060,
      "一一乒一一丂一一": 5061,
      "一亠一一一乀一一": 5062,
      "一乀一一一丂丁一": 5063,
      "一一一一一亄丂一": 5064,
      "亠丆一一": 5065,
      "一一丠丄一一丄一": 5066,
      "一一一丂乀丑一一": 5067,
      "一一丠两": 5068,
      "丈丅一一": 5069,
      "一一一丁丠丈一一": 5070,
      "一一一一一一丄丁": 5071,
      "一丁一一一丄一一": 5072,
      "一上丁": 5073,
      "一一乀一一一一丂": 5074,
      "一一一一一亐丄一": 5075,
      "一一乄一亀一一一": 5076,
      "丁一丈丄一": 5077,
      "一乀丈一丐一一一": 5078,
      "一一亀一乀上一一": 5079,
      "一一一丁丐丂一一": 5080,
      "一丄丂一丐一一一": 5081,
      "一一一一一亠丈一": 5082,
      "一一一一一亂": 5083,
      "一一丠丐一一丁一": 5084,
      "丁一一丁一一": 5085,
      "一一丂乀一一一一": 5086,
      "一一丈一一乊一一": 5087,
      "一一丂丁一一丈一": 5088,
      "一一乀一乀三一一": 5089,
      "一一一丑亀一一一": 5090,
      "一一一且一上一一": 5091,
      "一丐乀": 5092,
      "一一亀一亀且一一": 5093,
      "一一亀亂一丠一一": 5094,
      "一一丂一一一一丁": 5095,
      "一一丈亀": 5096,
      "一一丠丄一丅一一": 5097,
      "丨丅一": 5098,
      "一乀一一丐丁一一": 5099,
      "上丂一": 5100,
      "一一乀一乐丂一一": 5101,
      "一丐一一一上一一": 5102,
      "一亀交": 5103,
      "一一乀丄丠一一一": 5104,
      "一一丈一丐丅一一": 5105,
      "一一一一乀一丂一": 5106,
      "一一一丈丁乀一一": 5107,
      "一一一乨一一一一": 5108,
      "一乀丁一丈一一一": 5109,
      "一一一一丂一一": 5110,
      "一一丠一丠上一一": 5111,
      "一一一亁一丈一一": 5112,
      "一一丐一乀丠一一": 5113,
      "一丐丂一一丈一一": 5114,
      "一一亀丆一": 5115,
      "一一一丒一丠一一": 5116,
      "一丐一丁一一一一": 5117,
      "一一亠一一一丈一": 5118,
      "一一丠丐一乀一一": 5119,
      "一一丐丁亀丂一一": 5120,
      "一一丐丁亀丈一一": 5121,
      "一一一丂乀丐一一": 5122,
      "一一一一一一丐丐": 5123,
      "一一亀丒一一丂一": 5124,
      "一乀丈一一丂一一": 5125,
      "一一乀严一": 5126,
      "一一一丄亠一一一": 5127,
      "一一丁一亀乀一一": 5128,
      "一一一一亀么一一": 5129,
      "一一亠丂一丐一一": 5130,
      "一一且一丐一一一": 5131,
      "一一丐亀": 5132,
      "一一一三乀丂一一": 5133,
      "一一一一亄": 5134,
      "一一一一一习丁一": 5135,
      "一一丂一一一亁一": 5136,
      "一一丠丐一丐一一": 5137,
      "一一一且一一丄一": 5138,
      "丄丄一一": 5139,
      "一乀予": 5140,
      "丂一丁一": 5141,
      "一亀乀一一一丄一": 5142,
      "一么丈": 5143,
      "一一亀一乐丄一一": 5144,
      "一一一乌": 5145,
      "一丠丄一一丄一一": 5146,
      "一什丂一一一一一": 5147,
      "一一丈一丨丁一一": 5148,
      "一一亀丄丠丁一一": 5149,
      "一一一么一乄一一": 5150,
      "一丠一一交一一一": 5151,
      "一一一丙": 5152,
      "一一丐一丐丂一一": 5153,
      "一一丈丁乀丠一一": 5154,
      "一一一丒一丈一一": 5155,
      "一一两一丐一一一": 5156,
      "一一亀丂一且一一": 5157,
      "一一亀一丁": 5158,
      "一一丂一乄一一一": 5159,
      "一一丂一亠丄一一": 5160,
      "一一亀丄一一丂一": 5161,
      "一一一丄一乐一一": 5162,
      "一一一丈一丈丄一": 5163,
      "一一丄一予丂一一": 5164,
      "一一乀七一": 5165,
      "一一丐一丐丅一一": 5166,
      "乐丁": 5167,
      "一丐一一亀": 5168,
      "一一亠一一亠一一": 5169,
      "一一亄一丐一一一": 5170,
      "一一一乐一亠一一": 5171,
      "一一乐上一": 5172,
      "一一乀丄一丢一一": 5173,
      "一一一亂一丠一一": 5174,
      "一一一丑一上一一": 5175,
      "一一丐丁丐一一一": 5176,
      "一一丠一乔一一一": 5177,
      "一一亀丐一丄丂一": 5178,
      "一一乀丄一上一一": 5179,
      "一一亁一乀丁一一": 5180,
      "一一亐丈一丄丂一": 5181,
      "一丈丄一一丂一一": 5182,
      "丰一一一一一": 5183,
      "一一丈乀": 5184,
      "一一一丈一一一丂": 5185,
      "一一一一一丐丅一": 5186,
      "一一一丁一亠一一": 5187,
      "一一丠一一一亁一": 5188,
      "一一予一一亀一一": 5189,
      "一一一一什丈一一": 5190,
      "丘一一一一一": 5191,
      "一一丩一一": 5192,
      "一一亀一丠": 5193,
      "一一丂丁亀丂一一": 5194,
      "一一乐丂亀乀一一": 5195,
      "一一乐丁一丈一一": 5196,
      "一一一丁乀三一一": 5197,
      "一一亀丈乀一一一": 5198,
      "一一乂一丄一一一": 5199,
      "一一丑一一丐一一": 5200,
      "仐丂一": 5201,
      "两丈一": 5202,
      "一一一一一乕一一": 5203,
      "一一丄一乀三一一": 5204,
      "一一丂丠": 5205,
      "一一一一一井一一": 5206,
      "一亁一一亀一一一": 5207,
      "一一一丂一丒一一": 5208,
      "一一丐一乀": 5209,
      "一一丁一一一一丁": 5210,
      "一亠一一一丁一一": 5211,
      "一一丂一一一": 5212,
      "一乀丁一丐一一一": 5213,
      "一一一亀一丁一一": 5214,
      "丁一乀一一": 5215,
      "一一丁一乄丁一一": 5216,
      "一一丐乀": 5217,
      "一一乀一丁一一一": 5218,
      "一一丈丁一丄一一": 5219,
      "一一丈丁一丈丄一": 5220,
      "一一一严一丈丄一": 5221,
      "一一一丄丈一一一": 5222,
      "丄一丄一一": 5223,
      "一一丈丁丐丂一一": 5224,
      "一一一一一丈丠一": 5225,
      "一一一丄一且一一": 5226,
      "亀乊一一": 5227,
      "一一且一亀乀一一": 5228,
      "乤一一": 5229,
      "一一一一亀乀": 5230,
      "一一丈一一一一丂": 5231,
      "亀一丁": 5232,
      "一一一且一亂一一": 5233,
      "一乀丈一一乀一一": 5234,
      "一一丄一一両一一": 5235,
      "一一亀一一丠丂一": 5236,
      "一一么丁亐丂一一": 5237,
      "一一丄一乄一一一": 5238,
      "一一丐丂一丐丈一": 5239,
      "一一亂一乀一一一": 5240,
      "一一一一乔丁一一": 5241,
      "一一丂一亀丐一一": 5242,
      "一一亀丈一丐一一": 5243,
      "一一一丂丁一丂一": 5244,
      "一一一一亠丅一一": 5245,
      "一一一丁一丈丁一": 5246,
      "一一乡": 5247,
      "一一丅一丐一一一": 5248,
      "一亀丈一一丂一一": 5249,
      "习丅一一": 5250,
      "一一亀一丠丐一一": 5251,
      "一一一亡一一一一": 5252,
      "一一亄一一一丄一": 5253,
      "一一一一亀一丈一": 5254,
      "一一一且一丐一一": 5255,
      "一丐丈一一亀一一": 5256,
      "一一丁一予一一一": 5257,
      "一一亠一么一一一": 5258,
      "一一丠一一一丑一": 5259,
      "一一亀丄乀丠一一": 5260,
      "一一么丄一丂丁一": 5261,
      "一一一一两丂一一": 5262,
      "一一乀一乀丠一一": 5263,
      "一一一一一一一丒": 5264,
      "一一一三一一丈一": 5265,
      "一一一一一亁乀一": 5266,
      "一一丂一一一丅一": 5267,
      "一一一丐亀丂一一": 5268,
      "丸一": 5269,
      "一亀一一一亁一一": 5270,
      "一丈一一么一一一": 5271,
      "一一亀丄一亀一一": 5272,
      "一一亀丘一一一一": 5273,
      "一一丐丂亠一一一": 5274,
      "一一丈一予丂一一": 5275,
      "一一一丒亀丄一一": 5276,
      "一一乀丄亀一一一": 5277,
      "一一一乀丠": 5278,
      "一一一丂一一一丂": 5279,
      "一一一丂一亐一一": 5280,
      "一一一丈一丑一一": 5281,
      "一亀世": 5282,
      "一一一丁一一丄丂": 5283,
      "一亠且一一一一一": 5284,
      "一一一一一亐丈一": 5285,
      "一交丂": 5286,
      "一亀一丐一一一一": 5287,
      "一一一一一仠一一": 5288,
      "丂乀一一": 5289,
      "一一丠丅一丈一一": 5290,
      "一一乊一一丈一一": 5291,
      "一一一丠一一一丁": 5292,
      "一一乀一一丢一一": 5293,
      "一一乀丅一丠一一": 5294,
      "一一予一一一丄一": 5295,
      "一一亐丂一丄一一": 5296,
      "一一乀一交一一一": 5297,
      "一丐丈一丠一一一": 5298,
      "一一什丂一": 5299,
      "一一亀一一丢一一": 5300,
      "一一上一乐一一一": 5301,
      "一一丄丠": 5302,
      "一一一亀一丨一一": 5303,
      "丩丁一": 5304,
      "一一一丐一亠一一": 5305,
      "一一一么丁一": 5306,
      "一一一丄一丒一一": 5307,
      "一一一一一丂丐一": 5308,
      "一亀业": 5309,
      "一丁一一一丐一一": 5310,
      "一一一乒一一丂一": 5311,
      "一一亀丠一丄一一": 5312,
      "一一丠丑一丈丄一": 5313,
      "一一一丈一一一": 5314,
      "亠丅一一": 5315,
      "与一一一一": 5316,
      "一一丐一么丁一一": 5317,
      "一一一一一丨丄一": 5318,
      "一一一且一一丂一": 5319,
      "习一一一一": 5320,
      "一一亀丠一丐一一": 5321,
      "一一一一予丄一一": 5322,
      "一一予一一丈一一": 5323,
      "一一一一亠丆一一": 5324,
      "一亀丈一丄一一一": 5325,
      "一一丈丄一一丂一": 5326,
      "乒丂一": 5327,
      "一一一亪": 5328,
      "一一一一习丄一一": 5329,
      "一一一三亀乀一一": 5330,
      "一一乐丂亠丄一一": 5331,
      "一一一一一丂亁一": 5332,
      "一一丂丁一丠丐一": 5333,
      "一一乢一一一一一": 5334,
      "一一一丢一丁一一": 5335,
      "一一丠一丠": 5336,
      "一乀两一": 5337,
      "一一一丄亀丄一一": 5338,
      "么一一一一": 5339,
      "一一三一丐一一一": 5340,
      "一一一一亨丄一一": 5341,
      "一一一一仠一一一": 5342,
      "一一一丐一丄丂一": 5343,
      "丁丐": 5344,
      "一一一丂乀丂一一": 5345,
      "一一丂一丐丁一一": 5346,
      "一一乀丈一亀一一": 5347,
      "一一丐一一丐丁一": 5348,
      "一一丠丄一一丂一": 5349,
      "一一一一一一一丘": 5350,
      "一一乐一亀乀一一": 5351,
      "一丂一一一乀一一": 5352,
      "一一丈丁乀丁一一": 5353,
      "一一丈一一乂一一": 5354,
      "一一丄丂一丅一一": 5355,
      "丄一丈一一": 5356,
      "什丂一": 5357,
      "一丠一一一乐一一": 5358,
      "一一一丄丂一丄丂": 5359,
      "乐丅一": 5360,
      "一一一严一丠一一": 5361,
      "亁丈一一": 5362,
      "一一丠丂乀一一一": 5363,
      "一一一乀一丠丂一": 5364,
      "一一一一乀下一一": 5365,
      "一一乆一一一一一": 5366,
      "一一一一丁一一丁": 5367,
      "一一亀丐一両一一": 5368,
      "一一一上一乀丠一": 5369,
      "一一一丐一丈丁一": 5370,
      "一一丐丂一丈一一": 5371,
      "一一亀丈一丁一一": 5372,
      "一一一个一乀一一": 5373,
      "一亀一一丐丂一一": 5374,
      "一丐一一乀丁一一": 5375,
      "乊一一一一": 5376,
      "一一亀一乀丐一一": 5377,
      "一一一丫": 5378,
      "一一乀亅": 5379,
      "一一丁一乐丂一一": 5380,
      "一丠个": 5381,
      "一一上一一一丂一": 5382,
      "一亠丅一一": 5383,
      "云一": 5384,
      "一一丈一一予一一": 5385,
      "一一一一乀一丄一": 5386,
      "一一一一丠一丁一": 5387,
      "一一乀丕": 5388,
      "一一一乤": 5389,
      "一一一丈亀丐一一": 5390,
      "一一丠一一么一一": 5391,
      "一一丄乀": 5392,
      "一一丈丅一一": 5393,
      "一一一丈丁一丈一": 5394,
      "一一一丢一丂一一": 5395,
      "一丐亀": 5396,
      "一丐亀一一一一一": 5397,
      "一一一乀一丄丂一": 5398,
      "一一丈丄一一丐一": 5399,
      "一一亀世": 5400,
      "一一乀丁丈一一一": 5401,
      "一一个一一": 5402,
      "一一亀丐一丅一一": 5403,
      "一一亄一一丄丂一": 5404,
      "一一乐丂一丂一一": 5405,
      "一一亀乀一丈一一": 5406,
      "一一丈一丠丅一一": 5407,
      "一丄丂一一丂丁一": 5408,
      "一一了": 5409,
      "一一一丈一一丂丁": 5410,
      "一一乐丅": 5411,
      "一一丄亀": 5412,
      "一乀丂一丐一一一": 5413,
      "亀个一一": 5414,
      "一一亨一一丄一一": 5415,
      "一一乀上一丐一一": 5416,
      "予丁一一": 5417,
      "交丄一": 5418,
      "一一两一一丈一一": 5419,
      "一一么一一丐一一": 5420,
      "一一丈丂乀一一一": 5421,
      "一一一丁一両一一": 5422,
      "一一一丒一亄一一": 5423,
      "丠丠": 5424,
      "一乀一一亐一一一": 5425,
      "一一丐丁一丐一一": 5426,
      "一一一丄一一丄丂": 5427,
      "一一丂一乀": 5428,
      "一一丠一乀且一一": 5429,
      "一一一乐一丐一一": 5430,
      "一一丄丐": 5431,
      "一一一丄一个一一": 5432,
      "一一一一丁丁一一": 5433,
      "一一一一亀世一一": 5434,
      "一一一乀一一一丁": 5435,
      "一么丄一一一一一": 5436,
      "一一丈一亠丄一一": 5437,
      "一一丠一丨丁一一": 5438,
      "一一亄一一丂一一": 5439,
      "一一丠一乄一一一": 5440,
      "一一一丄一丐丈一": 5441,
      "一一乔一亀一一一": 5442,
      "一一一一亀丑一一": 5443,
      "一一一一一丁丐一": 5444,
      "一一一丄一乀丁一": 5445,
      "一一丠丐一亀乀一": 5446,
      "一丐一一亠一一一": 5447,
      "一亐丄一一一一一": 5448,
      "一一乀上亀且一一": 5449,
      "一一亀乊一一一一": 5450,
      "一一亐一予一一一": 5451,
      "一一亠丄乀三一一": 5452,
      "一乀丠一一丄丂一": 5453,
      "一一乀丁丐丈一一": 5454,
      "一一一丂一一且一": 5455,
      "一一丄丂一一丂丁": 5456,
      "一一一一仐丂一一": 5457,
      "一一三一一丄一一": 5458,
      "一一一一交丂一一": 5459,
      "一丐一一一丈丄一": 5460,
      "一丠一一丠丐一一": 5461,
      "丂乀丠一": 5462,
      "一丁一一乀一一一": 5463,
      "一丐且": 5464,
      "一一一丁一丑一一": 5465,
      "一一一一一一丈丁": 5466,
      "一一丠一一一丂丁": 5467,
      "一丠乀一": 5468,
      "一丄丈一一一一一": 5469,
      "予一一一一": 5470,
      "一一丠亀": 5471,
      "亃一一": 5472,
      "一一丁一乀丈一一": 5473,
      "一一乔一一": 5474,
      "一什丁一一一一一": 5475,
      "一亀一一丠丁一一": 5476,
      "一一一丄亀丠一一": 5477,
      "一乀一一乀丂一一": 5478,
      "一一一亀乀一一一": 5479,
      "一一乀丂亐一一一": 5480,
      "一一乐丈一一": 5481,
      "一丈丄一一丈一一": 5482,
      "一一一两一三一一": 5483,
      "一一一一丨丄一一": 5484,
      "一亀一一一乄一一": 5485,
      "一一丁一一乐一一": 5486,
      "一一么一丐丂一一": 5487,
      "一一乄一一丄一一": 5488,
      "一一丠丂丠丁一一": 5489,
      "一一亠丂乀丅一一": 5490,
      "一一亀丈一乄一一": 5491,
      "一乀乔": 5492,
      "一丂丁一乀一一一": 5493,
      "一丐一一丨一一一": 5494,
      "一一乀一一乀丂一": 5495,
      "一丐一一亀丂一一": 5496,
      "一东": 5497,
      "一一么丁一丂一一": 5498,
      "一一一且丁": 5499,
      "丘丁一": 5500,
      "一一乀上一丄一一": 5501,
      "亢一": 5502,
      "両丁一一": 5503,
      "一一一丁亀丠一一": 5504,
      "一一丄一一乄一一": 5505,
      "一一且一丄一一一": 5506,
      "丂丐一": 5507,
      "一丠丢": 5508,
      "一一一一丄丈一一": 5509,
      "一亀乨": 5510,
      "一且丁一": 5511,
      "一一亠一丐丄一一": 5512,
      "一一丂乀": 5513,
      "一乐三一一一一一": 5514,
      "一一且一一一丄一": 5515,
      "一一丈一亀丒一一": 5516,
      "一一一丈乀": 5517,
      "一一丈丑一": 5518,
      "一一乀一丨丂一一": 5519,
      "一一丠一一一丄丂": 5520,
      "一亀久": 5521,
      "一一乀一一丈丁一": 5522,
      "乀丁一一一一一一": 5523,
      "一一一争一一一一": 5524,
      "一一乀丄乀丂一一": 5525,
      "一予丄一一一一一": 5526,
      "一一丠丅一丂一一": 5527,
      "一一丠一一丠丂一": 5528,
      "一一乀丈一上一一": 5529,
      "一一丐一乀上一一": 5530,
      "一亐一一亀一一一": 5531,
      "一一乀丈一一丠一": 5532,
      "一一亠丄一丈一一": 5533,
      "一一丠一一丒一一": 5534,
      "一一一丄丄一一一": 5535,
      "一一丐一一亄一一": 5536,
      "一一一串": 5537,
      "丁丐一一一": 5538,
      "一一一丨一丁一一": 5539,
      "一一一丄一予一一": 5540,
      "一一亁一丈丄一一": 5541,
      "一一一一一乀亀一": 5542,
      "一一两丂一亁一一": 5543,
      "一一一丐一丐丈一": 5544,
      "一一丨丐一": 5545,
      "一一予一乀丁一一": 5546,
      "一丁一一一丈一一": 5547,
      "乘丁一": 5548,
      "一一一丄亀丢一一": 5549,
      "一一丐一乀三一一": 5550,
      "一一乀丠一一丈一": 5551,
      "一一丅一一一丁一": 5552,
      "一一一中": 5553,
      "一一一乀一丠丐一": 5554,
      "一一丄亀一一一一": 5555,
      "一一一一一个丁一": 5556,
      "一亀一丈": 5557,
      "一一丠丄一丠丐一": 5558,
      "一一丨丁乐丂一一": 5559,
      "一一亄丄": 5560,
      "一一一么一两一一": 5561,
      "一亀一一亀丒一一": 5562,
      "一一乀一丠丈一一": 5563,
      "一一丐一一一一丂": 5564,
      "一一一一丁乀": 5565,
      "一一丄一乄丁一一": 5566,
      "一一丂一一亠一一": 5567,
      "一一丄一乐丂一一": 5568,
      "一一一一丐乀一一": 5569,
      "一丨丂一": 5570,
      "一一一乀一一丂丁": 5571,
      "一一一一七": 5572,
      "一一一丁丠丁一一": 5573,
      "一一一丨一丂丁一": 5574,
      "一一丩一一丁一一": 5575,
      "一一丄一亐丂一一": 5576,
      "一一一一一什丂一": 5577,
      "一七一一一一一一": 5578,
      "一一一一丂一丈一": 5579,
      "一丕": 5580,
      "一一一両一丄一一": 5581,
      "亀乂": 5582,
      "一丐丕": 5583,
      "一亀一一一丨一一": 5584,
      "一一一丂一一上一": 5585,
      "一一丄一乀": 5586,
      "一亀一丠一一一一": 5587,
      "一一一乂一丄丂一": 5588,
      "一一亀一丐丄一一": 5589,
      "一一一么一丐一一": 5590,
      "一一亀一丈丁一一": 5591,
      "一一一一一丈丅一": 5592,
      "一一一一一一乔一": 5593,
      "一一一丢一一丁一": 5594,
      "一一一一一一乊一": 5595,
      "一一一乐一丠丂一": 5596,
      "一丁一一丈一一一": 5597,
      "一亀丐一一丈一一": 5598,
      "一一一亀一一一": 5599,
      "一亀丐一一丁一一": 5600,
      "一一亀一一丒一一": 5601,
      "一一乀一么一一一": 5602,
      "一一丐丁一一丁一": 5603,
      "一一丁乀一一一一": 5604,
      "一一乀丂丠丐一一": 5605,
      "一丠一一一一乀一": 5606,
      "丂乀丐一一": 5607,
      "一一一一一一乒一": 5608,
      "一一且一一一": 5609,
      "一一乐丁亠丂一一": 5610,
      "一一乀丅亀上一一": 5611,
      "一一一一亀乀丠一": 5612,
      "一亀乀一丨一一一": 5613,
      "一一一一一什丁一": 5614,
      "一一一一一么丅一": 5615,
      "一一一一一丒": 5616,
      "一一丢一乀一一一": 5617,
      "一一亐丂一丐丈一": 5618,
      "一一一乀丐一一一": 5619,
      "一一亐一一丠一一": 5620,
      "一一丫": 5621,
      "一丠丄一亀一一一": 5622,
      "一一一亰一一一一": 5623,
      "乒一一一一": 5624,
      "一一丄一丠": 5625,
      "一丐一一一乀": 5626,
      "一一一丒一亁一一": 5627,
      "一一亨丂一一一一": 5628,
      "一一亀丄丠一一一": 5629,
      "丐丐": 5630,
      "一丠一一一亀": 5631,
      "一一丁一乄一一一": 5632,
      "一一亀乀一丄丂一": 5633,
      "一一丄丐一": 5634,
      "一丂一一丄一一一": 5635,
      "一乐七一一": 5636,
      "一一丐一乀丅一一": 5637,
      "一一亀且一亁一一": 5638,
      "一一一七亀一一一": 5639,
      "一一予一乀丄一一": 5640,
      "一一丠丄一丐一一": 5641,
      "一一丠一亀丨一一": 5642,
      "一一乀三一丐一一": 5643,
      "亀丅一一": 5644,
      "一一一一一乀七一": 5645,
      "一一一一乐七一一": 5646,
      "一丠一一一丂丁一": 5647,
      "一亀亨": 5648,
      "一一一一丠一丂一": 5649,
      "一一一乀一乐一一": 5650,
      "一一乔一一丂一一": 5651,
      "一一仑": 5652,
      "一一丠丂一丠一一": 5653,
      "一一丈丄一一亁一": 5654,
      "一一亀丑一": 5655,
      "一一一丠丄一": 5656,
      "一乀一一乀三一一": 5657,
      "一一丐上一一": 5658,
      "一一一一一丄丠一": 5659,
      "一一丈一丈丁一一": 5660,
      "一一一亁一一": 5661,
      "一一一一一丆": 5662,
      "一一一丑一丂一一": 5663,
      "一一一一丂一丄丂": 5664,
      "一一且一一丐丈一": 5665,
      "一一一一一丂丠一": 5666,
      "一一亐丂一丁一一": 5667,
      "一一一丂乐一一一": 5668,
      "一一丂丁一一丠一": 5669,
      "一一一乀丁丠一一": 5670,
      "一丠一一予一一一": 5671,
      "一一一丐一两一一": 5672,
      "一一丂一乄丁一一": 5673,
      "丐一一丁一": 5674,
      "乐三一": 5675,
      "一丐一一一丂丁一": 5676,
      "一一亀丄亀一一一": 5677,
      "一一乐丂一丄一一": 5678,
      "一一一一丂丈一一": 5679,
      "一乀一一一乀丁一": 5680,
      "一一一一一亪一一": 5681,
      "一丈丠一一一一一": 5682,
      "一一一丵": 5683,
      "一一一上一丐丈一": 5684,
      "一一丒一一丄一一": 5685,
      "一一丁一一严一一": 5686,
      "一乀丁一一丐一一": 5687,
      "一一乒一一乀一一": 5688,
      "一一丄丂一一丄一": 5689,
      "一一一一丄丂": 5690,
      "一丑一一一一一一": 5691,
      "一亥": 5692,
      "一一一一一一一两": 5693,
      "一一亀丈一且一一": 5694,
      "一一亀一亀丒一一": 5695,
      "一一一乀一两一一": 5696,
      "一一亀一一乄一一": 5697,
      "一亀丈一一丈一一": 5698,
      "一一么丁丐一一一": 5699,
      "一严": 5700,
      "一一丄一一亄一一": 5701,
      "一一亀丈亀丄一一": 5702,
      "一一丁一亀丄一一": 5703,
      "一一乀丁一一丠一": 5704,
      "一乀个一": 5705,
      "一一一一丰丂一一": 5706,
      "一一一一一乁": 5707,
      "一一丂丈": 5708,
      "一一亠上": 5709,
      "一一丠丅一丁一一": 5710,
      "一亀么一一": 5711,
      "一一么丁一丈丄一": 5712,
      "一一丂一么丁一一": 5713,
      "一一乀一乀且一一": 5714,
      "一亠一一丠一一一": 5715,
      "一丈一一亠一一一": 5716,
      "一一乀丂一一丈一": 5717,
      "一一一丆一丁一一": 5718,
      "仈一一": 5719,
      "一一乀上一丂一一": 5720,
      "一一一么一丒一一": 5721,
      "一一一乐一两一一": 5722,
      "一一一一亠且一一": 5723,
      "一丐一一一一丠一": 5724,
      "一一丨一一丠丐一": 5725,
      "一一丅一乀丁一一": 5726,
      "一亠一一一且一一": 5727,
      "一丰一一一": 5728,
      "一一亁一一一丈一": 5729,
      "一一亠一一一乀一": 5730,
      "一一丈一丠": 5731,
      "乄丈一": 5732,
      "一乀一丈一一一一": 5733,
      "一一亠上一一一一": 5734,
      "乐七一一": 5735,
      "一一一丠丁乀": 5736,
      "一一丈一亠丂一一": 5737,
      "一乀一一乔一一一": 5738,
      "一一亀一一一亁一": 5739,
      "一一亀丐一一丄一": 5740,
      "一一乀丅亀一一一": 5741,
      "一丈一一乐一一一": 5742,
      "乂丂一一": 5743,
      "一一一五一": 5744,
      "一一丁丠": 5745,
      "一一丂一一三一一": 5746,
      "一丄丂一一丐一一": 5747,
      "一乔丂一一": 5748,
      "不一一一一一": 5749,
      "一一亠一一一且一": 5750,
      "一一一一乨丁一一": 5751,
      "一一亠丁一": 5752,
      "一一丠丄乀丢一一": 5753,
      "一一丐丁丠一一一": 5754,
      "一么三": 5755,
      "一一一丠一一一丄": 5756,
      "一一丠一丁一一一": 5757,
      "丁丠": 5758,
      "一一丈一一丈丁一": 5759,
      "一一乀丈亀乄一一": 5760,
      "一丠丄一一丠一一": 5761,
      "一一丠一亀上一一": 5762,
      "一一么丄一丂一一": 5763,
      "一一亀上一丁一一": 5764,
      "一亀丐一予一一一": 5765,
      "丁一一丂": 5766,
      "一一一丂一亀丂一": 5767,
      "一乁一一一一一一": 5768,
      "一一一一亨": 5769,
      "一丁一一一乀一一": 5770,
      "一一一三一丁一一": 5771,
      "一丠丁一一丄一一": 5772,
      "一丠一一亨一一一": 5773,
      "一一丠丅一丠丐一": 5774,
      "一一乃": 5775,
      "一一丄一一一丂丁": 5776,
      "一亀一一一亀丂一": 5777,
      "一一一丄一么一一": 5778,
      "一一亀丄一丐一一": 5779,
      "一一交一么丁一一": 5780,
      "一一一一一丄丂丁": 5781,
      "一一一乒一丄一一": 5782,
      "专一": 5783,
      "一一乀丩一": 5784,
      "一一一丂一丠丂一": 5785,
      "一一丢一一丂一一": 5786,
      "一一一一一个": 5787,
      "一一丂一一乊一一": 5788,
      "一一丠一丠丐一一": 5789,
      "一一丈一丠丐一一": 5790,
      "一一交一一亀一一": 5791,
      "一一丨丄一丁一一": 5792,
      "一一丂一一乂一一": 5793,
      "一一一一买一一一": 5794,
      "一一丄一一乀丁一": 5795,
      "一一一丠一丅一一": 5796,
      "一一丠丁一乀一一": 5797,
      "一乀下": 5798,
      "一一乀丩一一一一": 5799,
      "一一一丸一一一一": 5800,
      "一一一丁亀且一一": 5801,
      "一一一一乀不一一": 5802,
      "一一一丐丈一一一": 5803,
      "一一乀上亀乀一一": 5804,
      "一一丐一丁一一一": 5805,
      "一一乀亀一": 5806,
      "一一一丈一亀乀一": 5807,
      "亰丂一": 5808,
      "一一一乄一丂一一": 5809,
      "一一一亐一亀一一": 5810,
      "一一一一一丠上一": 5811,
      "一乨一一一": 5812,
      "丈丐一": 5813,
      "一一丈丄一上一一": 5814,
      "一一丑一丠一一一": 5815,
      "一一一一一云一一": 5816,
      "丁丐一": 5817,
      "一一一丂亀丒一一": 5818,
      "一一丌一一": 5819,
      "三丄一": 5820,
      "一丐丈一乐一一一": 5821,
      "一丠丐一一乀丠一": 5822,
      "一丈丄一一乀一一": 5823,
      "一一一丩一丂丁一": 5824,
      "一一丨丁乀丠一一": 5825,
      "两丂": 5826,
      "一一一一乄丂一一": 5827,
      "一一乀三亀丒一一": 5828,
      "一一乀丂乀一一一": 5829,
      "一丠一一亠丄一一": 5830,
      "一丠丂一一丐一一": 5831,
      "一丠丐一丨一一一": 5832,
      "一一亀丁乀一一一": 5833,
      "丄一一亁一": 5834,
      "一丐丑": 5835,
      "一一乀丢一丐丈一": 5836,
      "一一一亀丠一一一": 5837,
      "一一丣一一一一一": 5838,
      "一一乐丅一一一一": 5839,
      "丂丠丄一一": 5840,
      "一一丱一一一一一": 5841,
      "一亀一一亄一一一": 5842,
      "一一乀丂一丈一一": 5843,
      "一一丈一交一一一": 5844,
      "一乀丠一丐丈一一": 5845,
      "一一一云一一一一": 5846,
      "一一一一一一一丰": 5847,
      "一一一亘": 5848,
      "一一丩一一丠一一": 5849,
      "一一一一一乔": 5850,
      "一乐丄一": 5851,
      "一一亀一亐一一一": 5852,
      "一一丈丁丐丈一一": 5853,
      "什丄一一": 5854,
      "一一一一丁丂一一": 5855,
      "一一一一一丐乀一": 5856,
      "一一乁一一": 5857,
      "一亀一一丨丁一一": 5858,
      "一一丄丂一乀丠一": 5859,
      "一一一一丠丆一一": 5860,
      "一乔丂": 5861,
      "一一乐丈一丂一一": 5862,
      "一一丄一一一上一": 5863,
      "亐丁一一": 5864,
      "一一亠丂乀一一一": 5865,
      "一一一丄一一一": 5866,
      "一一一一一丣一一": 5867,
      "一井": 5868,
      "乨一": 5869,
      "一丠丐一丄一一一": 5870,
      "一一丄丁一丈一一": 5871,
      "一一一一一乀丑一": 5872,
      "亂一一一一": 5873,
      "一一一丠一丈丄一": 5874,
      "一一丨一一一丈一": 5875,
      "一亀一丐": 5876,
      "一丁一一丐一一一": 5877,
      "一一一丱一一一一": 5878,
      "一一亐丈一丄一一": 5879,
      "一一乂一一丁一一": 5880,
      "一一上一一丈丄一": 5881,
      "一一一一亨丁一一": 5882,
      "一乀一一一一亀一": 5883,
      "一一亄一丈丁一一": 5884,
      "且丄一": 5885,
      "一一乂一一丂丁一": 5886,
      "一一亀乀一丠丐一": 5887,
      "一仐一一一一一一": 5888,
      "一一亀且一丠一一": 5889,
      "一一丂一一丢一一": 5890,
      "一一丈丁乐一一一": 5891,
      "一一一五一丠一一": 5892,
      "一一两丂一丁一一": 5893,
      "一一争一一": 5894,
      "一一一乊一乀一一": 5895,
      "一一亨一一亀一一": 5896,
      "一一亀且一丈一一": 5897,
      "一一亣": 5898,
      "一一一三一丠一一": 5899,
      "一一一両一丈丄一": 5900,
      "一一且丂亀一一一": 5901,
      "一丐三一": 5902,
      "一一乔丁一一一一": 5903,
      "一丂一一一一丂一": 5904,
      "一一一仈": 5905,
      "一一一亐一一丄一": 5906,
      "一一一亠一丐丁一": 5907,
      "一一亁一一丈丄一": 5908,
      "一一丂一丨丁一一": 5909,
      "一一丠丁一丄一一": 5910,
      "一乐丄一一一一一": 5911,
      "一一一亐一丨一一": 5912,
      "一乀一丐一一一一": 5913,
      "一乀一一乀上一一": 5914,
      "一丠一一一亠一一": 5915,
      "丁一亀一一": 5916,
      "一一一一乀丆一一": 5917,
      "一一乀一一亐一一": 5918,
      "一一一乂一乀一一": 5919,
      "一丄丂一亀乀一一": 5920,
      "一一一丁亠丄一一": 5921,
      "一一一丐丐": 5922,
      "一一乊一丐一一一": 5923,
      "一丁丂一": 5924,
      "一一丂丐": 5925,
      "一丐一一么一一一": 5926,
      "一一个一一丁一一": 5927,
      "一一丠両": 5928,
      "一一且丈一": 5929,
      "一丐丈一一丠丐一": 5930,
      "一一且一予一一一": 5931,
      "丁丠一一一": 5932,
      "一一亄一亠一一一": 5933,
      "一乂丁一": 5934,
      "一一三一一亀一一": 5935,
      "一一乐一丨一一一": 5936,
      "一一乄丁一": 5937,
      "一一丄丁丠一一一": 5938,
      "一一丠一丐": 5939,
      "一一一乆一一一一": 5940,
      "亀一丂一": 5941,
      "丠丢一一": 5942,
      "一一丐一一乔一一": 5943,
      "一一上一丈一一一": 5944,
      "一亀一丠": 5945,
      "一一一丂一乁一一": 5946,
      "一一一三乀一一一": 5947,
      "一一亐丂一一": 5948,
      "一一一丈一乁一一": 5949,
      "一一一乂一亀一一": 5950,
      "乕一": 5951,
      "一一丠丁乀丂一一": 5952,
      "一丠一一一亁一一": 5953,
      "一一亐丂亀一一一": 5954,
      "一一丐丂丠丑一一": 5955,
      "一丄丂一乀一一一": 5956,
      "一乔一一一一一一": 5957,
      "一一一丈一三一一": 5958,
      "一一乀丁一乀丁一": 5959,
      "一一一乁一丈一一": 5960,
      "一一乀丠一丠一一": 5961,
      "一一丈丂一丐一一": 5962,
      "一丈亀一一一一一": 5963,
      "一一一一亀业一一": 5964,
      "一一一乊一丐丈一": 5965,
      "一一一一亰": 5966,
      "一一一丁丠上一一": 5967,
      "一一一丨一亀一一": 5968,
      "一一丅一丨一一一": 5969,
      "一一一乀丁丐一一": 5970,
      "一一亐一一丅一一": 5971,
      "一一乐丁一一丁一": 5972,
      "一一一丐一両一一": 5973,
      "一一丠丁一丈丄一": 5974,
      "予丈一一": 5975,
      "一亀一一丠丄一一": 5976,
      "丛一一": 5977,
      "一一両一一一丂一": 5978,
      "一一丨丁一丁一一": 5979,
      "丂亀一一": 5980,
      "一一亪一一一一一": 5981,
      "一一亀一丐丅一一": 5982,
      "一一一严一一丄一": 5983,
      "一亠丆一一": 5984,
      "一丒丁": 5985,
      "一一一丈亀且一一": 5986,
      "一一一丠一丈丁一": 5987,
      "一么丅一一一一一": 5988,
      "一丈一一乀": 5989,
      "亠上一": 5990,
      "一丐丈一丈一一一": 5991,
      "一一一丂丄一一一": 5992,
      "一丐一一乀丠一一": 5993,
      "一一丒丂一一一一": 5994,
      "一一一一乔丂一一": 5995,
      "一一丠丁一上一一": 5996,
      "一一亀乔一一一一": 5997,
      "一一亀一一亐一一": 5998,
      "一乀丈一丄一一一": 5999,
      "一一亠丐一丄一一": 6000,
      "一乀丠一一亀乀一": 6001,
      "一一亍": 6002,
      "一一一丈一丐丂一": 6003,
      "一一丠一亀丒一一": 6004,
      "一一乔一一乀一一": 6005,
      "一一丠丐一一丐一": 6006,
      "一亀丄一亀一一一": 6007,
      "一一一一亁一一一": 6008,
      "一一乐三一": 6009,
      "一一一一乀丩一一": 6010,
      "一一丈丁一一丈一": 6011,
      "一一丁一一両一一": 6012,
      "乁丁一一": 6013,
      "一一丂亀": 6014,
      "一一丐一一乒一一": 6015,
      "一一乀一丐丈一一": 6016,
      "一一一丈一丠丐一": 6017,
      "一一乀丂亀丄一一": 6018,
      "一一丒一一一丁一": 6019,
      "一一交一一丁一一": 6020,
      "一一乄一亠一一一": 6021,
      "丐丁": 6022,
      "一一乀一丄丂一一": 6023,
      "一一丠一一一且一": 6024,
      "一亀一一乀丂一一": 6025,
      "一一一三一一丄一": 6026,
      "一一一丈一乀丁一": 6027,
      "一一一丁一乄一一": 6028,
      "一一乀一一乀丄一": 6029,
      "久一一一一": 6030,
      "一一丠一一丈丁一": 6031,
      "一一丨一乀丠一一": 6032,
      "一丠丐一一丂丁一": 6033,
      "一一一丑一丠一一": 6034,
      "乐上一": 6035,
      "一一乒一一": 6036,
      "一一专": 6037,
      "一一乀丈一丠一一": 6038,
      "一亀丐一一一丁一": 6039,
      "一一一一一丠丑一": 6040,
      "一一丠一丐丄一一": 6041,
      "一一丁乀": 6042,
      "一一亄一丠丐一一": 6043,
      "一上丁一一一一一": 6044,
      "一一乂一丈一一一": 6045,
      "一一一丨一一": 6046,
      "一乐丄": 6047,
      "一一丄一一丒一一": 6048,
      "一亀一一亀且一一": 6049,
      "一亀丐一丐一一一": 6050,
      "一一一丠一丠丐一": 6051,
      "丩丂一": 6052,
      "一一一乄丁一一一": 6053,
      "一一一一一乔丂一": 6054,
      "一一乀丁一一丐一": 6055,
      "一一一一一一什": 6056,
      "一一一丐一一丂丁": 6057,
      "一亀丂一一亀一一": 6058,
      "一五丂": 6059,
      "一一丈一么丂一一": 6060,
      "一一亀个": 6061,
      "亀丄一一一一一一": 6062,
      "丄乀一一一": 6063,
      "一乀一丁": 6064,
      "一一一一一一丈丂": 6065,
      "一一一乚": 6066,
      "一一丨丂一一": 6067,
      "一一一一一乐丈一": 6068,
      "一一乀一一一一丄": 6069,
      "一一亐一一丄丂一": 6070,
      "一一一丨一一丠一": 6071,
      "一五丂一一": 6072,
      "一一一丐一丢一一": 6073,
      "一丈丐": 6074,
      "一一丠丁丠一一一": 6075,
      "一亀一一丄丂一一": 6076,
      "一一丨丁一丂一一": 6077,
      "一一交一一丄丂一": 6078,
      "一一一一一五": 6079,
      "一一交一一": 6080,
      "一一一一乀丌一一": 6081,
      "一一丠一丠三一一": 6082,
      "一一乐一一乀丠一": 6083,
      "一一亐一一丂一一": 6084,
      "一一一乂一一丈一": 6085,
      "一一亀且一丄一一": 6086,
      "一一丄一五一一一": 6087,
      "一一亂一一": 6088,
      "一一一丄丠丂一一": 6089,
      "一一丄丂一一丐一": 6090,
      "一一且丁一": 6091,
      "一一丈一乀丅一一": 6092,
      "丂一亁一": 6093,
      "一丈上": 6094,
      "一乐一一一丁一一": 6095,
      "一一丠一一丠丠一": 6096,
      "一一亀一一亨一一": 6097,
      "一丂一一一一丁一": 6098,
      "一亐且": 6099,
      "一一一丨一丠一一": 6100,
      "一一丄一乐丁一一": 6101,
      "一一乂一一一丄一": 6102,
      "一一丐丂丠丁一一": 6103,
      "一乀临": 6104,
      "一一乀一予丂一一": 6105,
      "一一一丨丂一一一": 6106,
      "一一亂一一丄一一": 6107,
      "亁丂一一": 6108,
      "一一一丂一一亁一": 6109,
      "一丈一一一一丐一": 6110,
      "一一五一一": 6111,
      "一乀乁": 6112,
      "一一上一一一丈一": 6113,
      "一一乀丈一乀丠一": 6114,
      "一一一丠一乊一一": 6115,
      "一一亨一乐丁一一": 6116,
      "一丠丄一一丁一一": 6117,
      "一一丒丁亀乀一一": 6118,
      "一一乀一一乀乀一": 6119,
      "一乀亀一": 6120,
      "一一一两一丐一一": 6121,
      "一一一亂一": 6122,
      "一亀乀一一丄丂一": 6123,
      "一一乐丠一": 6124,
      "一一丐一五一一一": 6125,
      "买一": 6126,
      "一一亀上一丕一一": 6127,
      "乀丄": 6128,
      "一一丁丐": 6129,
      "一一乀丠一且一一": 6130,
      "一一丐一亐丄一一": 6131,
      "亀予一一": 6132,
      "丁一丐一": 6133,
      "一一么丁一一丁一": 6134,
      "一一乀丂一丐丈一": 6135,
      "一一一丌一丂一一": 6136,
      "一一一一仠": 6137,
      "一一乀一一一丂丁": 6138,
      "么丁": 6139,
      "一乀一一乄一一一": 6140,
      "一一一上一一丄一": 6141,
      "一一丅一一一丄一": 6142,
      "一亀乒一一": 6143,
      "一一丂一丠": 6144,
      "一一一丁一乀丄一": 6145,
      "一一丁一一一丅一": 6146,
      "一一亀丒一丠一一": 6147,
      "丁一一一一一一一": 6148,
      "一一一丨一丄丁一": 6149,
      "一一乀丈一一丄一": 6150,
      "一一乀丠一一丄一": 6151,
      "一一丐丄一丠一一": 6152,
      "一丂丁一一丠一一": 6153,
      "一一乀上一乀丠一": 6154,
      "一么丂": 6155,
      "一一一一乀丠丐一": 6156,
      "一亀一一一亠一一": 6157,
      "一一丂一亨一一一": 6158,
      "一一一一一丄乀一": 6159,
      "一一一丠丈一一一": 6160,
      "乃一一一一": 6161,
      "一一丐一一丐丂一": 6162,
      "一一一丒亀一一一": 6163,
      "一一一丅一一丠一": 6164,
      "一一乀丕一": 6165,
      "一一一一丐亀一一": 6166,
      "一乐一一一丈一一": 6167,
      "一亀丈一乀一一一": 6168,
      "一一丠丆一": 6169,
      "一一一上丁": 6170,
      "一一乀一一两一一": 6171,
      "一乀丠一丄一一一": 6172,
      "一一丐一一严一一": 6173,
      "一一丠丄乀丂一一": 6174,
      "一一一丂一乑一一": 6175,
      "一一亀一一一上一": 6176,
      "一一严一一丄一一": 6177,
      "乀乄一一": 6178,
      "一一丐丁亐一一一": 6179,
      "一丄丂一丠一一一": 6180,
      "一一丂亀一一一一": 6181,
      "一亀一丂": 6182,
      "一一一一乐上一一": 6183,
      "一一亀丐一一丁一": 6184,
      "一一一丂乀三一一": 6185,
      "一丐一一亐一一一": 6186,
      "一一一三一一丁一": 6187,
      "一一一两一乀一一": 6188,
      "丂一乀一一": 6189,
      "一一么丁亀一一一": 6190,
      "一一一丐一丠丠一": 6191,
      "一什丂一一": 6192,
      "三一一一": 6193,
      "一一亀丄乀丈一一": 6194,
      "一一一丈丁亀一一": 6195,
      "一一么一亀丂一一": 6196,
      "一乀一一两一一一": 6197,
      "一一一丑一一丄一": 6198,
      "一一丐一亀上一一": 6199,
      "一一丁一一乀丁一": 6200,
      "一一一三么一一一": 6201,
      "一一三一一丂一一": 6202,
      "一亀七": 6203,
      "一一一丁一亀丂一": 6204,
      "两丄一": 6205,
      "一一一丂一乔一一": 6206,
      "一一一丐丁亀一一": 6207,
      "亂丂一一": 6208,
      "一习丁一一一一一": 6209,
      "一丈三": 6210,
      "一丐丈一一一丄一": 6211,
      "一丂丁一一丄一一": 6212,
      "什丁一": 6213,
      "一一一丕一丂一一": 6214,
      "一一丠丑一丈一一": 6215,
      "一丐丢一": 6216,
      "一丠丐一一一丈一": 6217,
      "一一乀一亀丨一一": 6218,
      "乘一": 6219,
      "一一亀一乐丂一一": 6220,
      "一一一丂一丄": 6221,
      "一一两一一亠一一": 6222,
      "一一乀丄一乀一一": 6223,
      "一一一丅一丨一一": 6224,
      "一一一丒亐一一一": 6225,
      "一一一一一亀丆一": 6226,
      "一一一亐亀丄一一": 6227,
      "一丠乄": 6228,
      "一一丐一乀丈一一": 6229,
      "一一一丑一三一一": 6230,
      "一一一丑一予一一": 6231,
      "一一一丂一乂一一": 6232,
      "一丠一一丠丁一一": 6233,
      "一一乀一一乒一一": 6234,
      "一一丠丂一丂一一": 6235,
      "一丈一一一丅一一": 6236,
      "一一丂丁一丐丈一": 6237,
      "一一一仐一一一一": 6238,
      "一一丈丠一": 6239,
      "一丐一一乐丂一一": 6240,
      "一一一丒一丂一一": 6241,
      "一一一交一": 6242,
      "一一丠一且丁一一": 6243,
      "一乐一一乀一一一": 6244,
      "一乀丄一一丁一一": 6245,
      "一一丐丁一丁一一": 6246,
      "一一么一一一": 6247,
      "一一丠丂一一丂一": 6248,
      "一一一一一亀七一": 6249,
      "一一乄一丨一一一": 6250,
      "丁一亁一": 6251,
      "一一亀丂一亠一一": 6252,
      "一么丂一一一一一": 6253,
      "一丢丁": 6254,
      "一一一且一一乀一": 6255,
      "一亀丢一": 6256,
      "一乀一一一且一一": 6257,
      "一丐丂一一丂一一": 6258,
      "一一一一一一丠丂": 6259,
      "一一亠一乀三一一": 6260,
      "一丄丂一一丁一一": 6261,
      "一丐一一一丨一一": 6262,
      "一一丂丁亀丈一一": 6263,
      "一一乁一丠一一一": 6264,
      "一一予一丈一一一": 6265,
      "一一丠丁丐丈一一": 6266,
      "一亀一乀": 6267,
      "一一乄一丠丂一一": 6268,
      "一亀一一乀丠一一": 6269,
      "一丠一丄一一一一": 6270,
      "一一一亁一一丄一": 6271,
      "一一一么乀丂一一": 6272,
      "一一丄一一丐丂一": 6273,
      "一一一丈一丨一一": 6274,
      "一亀一一亀上一一": 6275,
      "丁一丂丁": 6276,
      "乀丐": 6277,
      "一一丈一丐": 6278,
      "一一亀丐一争一一": 6279,
      "一一丂一一一一丂": 6280,
      "一一丅一一一丈一": 6281,
      "一一一一一丢丁一": 6282,
      "一一丈一丁一一一": 6283,
      "一一五一丨丁一一": 6284,
      "一一丄一亠丂一一": 6285,
      "一一一亐一三一一": 6286,
      "一一一一丘丁一一": 6287,
      "一一一乪": 6288,
      "一一丂一一么一一": 6289,
      "一予丂一一一一一": 6290,
      "丐丑一一": 6291,
      "一乐上一一一一一": 6292,
      "一一丠丅乀丠一一": 6293,
      "一一两丈一": 6294,
      "一一一丒丠丁一一": 6295,
      "一一上一乀丠一一": 6296,
      "一一丕一亀一一一": 6297,
      "亐丒一一": 6298,
      "一一一丄乀丄一一": 6299,
      "一丈亀": 6300,
      "了一一": 6301,
      "一一亀丄么一一一": 6302,
      "一亀丄一一乀一一": 6303,
      "一一一一一丠三一": 6304,
      "一一丠一予一一一": 6305,
      "丂丠一": 6306,
      "一一丐丁一一丈一": 6307,
      "一一一一一乒": 6308,
      "一一一丁丨一一一": 6309,
      "一一一丈丁丐一一": 6310,
      "一一一么亀丄一一": 6311,
      "一一亀丐一且一一": 6312,
      "一一丄一一一一丂": 6313,
      "両丐一": 6314,
      "一乀丁一丠一一一": 6315,
      "乀丕一一": 6316,
      "一一丈一丄丂一一": 6317,
      "一一乐一亠丄一一": 6318,
      "一一丁一一丕一一": 6319,
      "一一丈一一丠丄一": 6320,
      "一一丒丁亀一一一": 6321,
      "一一丈一亀丐一一": 6322,
      "一一亀一一五一一": 6323,
      "一一丄丂一丑一一": 6324,
      "一一乀両一丈一一": 6325,
      "一一一両一上一一": 6326,
      "一一一三亐一一一": 6327,
      "一一乀一丈丂一一": 6328,
      "一一丐一一両一一": 6329,
      "一一丁一乀": 6330,
      "一一一亀一乀丁一": 6331,
      "一一一一丠七一一": 6332,
      "一予丂": 6333,
      "一一亠一丄一一一": 6334,
      "一乐一一一丠一一": 6335,
      "一丈丄一丠丐一一": 6336,
      "一一一两丠丁一一": 6337,
      "一一一丢一且一一": 6338,
      "一一亠亀": 6339,
      "一一一乖": 6340,
      "一一一交一一丄一": 6341,
      "一一亀一丠丂一一": 6342,
      "一丐一一五一一一": 6343,
      "一两丄": 6344,
      "一乑": 6345,
      "一一一丁乀丄一一": 6346,
      "一一两丄一一一一": 6347,
      "一一亠丠一": 6348,
      "一一一亃": 6349,
      "一一一丂丐丁一一": 6350,
      "一一乀丄一丄一一": 6351,
      "一一一丈乀丄一一": 6352,
      "一一一丠一乀乀一": 6353,
      "一一丠一乄丁一一": 6354,
      "一一一丢一丄一一": 6355,
      "一一一両一乂一一": 6356,
      "一一丄一两丁一一": 6357,
      "一亀丄一一一丂一": 6358,
      "一一丁一一丩一一": 6359,
      "亀丐一一一一一一": 6360,
      "一一一丨一且一一": 6361,
      "一一一丁丂一一一": 6362,
      "一亀丂一一一丄一": 6363,
      "一一两一一一丂一": 6364,
      "一乀一一一乐一一": 6365,
      "一一一一丐七一一": 6366,
      "乁丄一一": 6367,
      "一一一一丌": 6368,
      "一丠业": 6369,
      "一亀一一一丠丐一": 6370,
      "一一么一一丁一一": 6371,
      "一一丐丑": 6372,
      "一一一一一丈乀一": 6373,
      "一一亀丄一三一一": 6374,
      "么丈一": 6375,
      "一一乀丕一一一一": 6376,
      "丂丠丐一": 6377,
      "一一丠亁": 6378,
      "一一亀一丐": 6379,
      "一一丠丁亀丈一一": 6380,
      "一一乀丈一一丈一": 6381,
      "一丢丁一": 6382,
      "一一丐一一丐丐一": 6383,
      "一一一丈一丐丐一": 6384,
      "一一一丄一两一一": 6385,
      "一一什一一": 6386,
      "一亀乆": 6387,
      "一乀一一亀乀一一": 6388,
      "一一一一一丐上一": 6389,
      "一一亀且一丩一一": 6390,
      "一一一丠丁三一一": 6391,
      "一一丐丂亀丐一一": 6392,
      "一一亠一丈丄一一": 6393,
      "一乀一一丈丁一一": 6394,
      "一一两一一一": 6395,
      "一一丄一乀丈一一": 6396,
      "丁一一丄一": 6397,
      "一一乀一一一丢一": 6398,
      "一一一两乀丂一一": 6399,
      "丣一": 6400,
      "一乀亠": 6401,
      "亀一一一丐一一一": 6402,
      "一一么丐一": 6403,
      "一一一一一亐上一": 6404,
      "一世": 6405,
      "丂一丐一": 6406,
      "一一丅一一丄丂一": 6407,
      "一一一乐一一丄一": 6408,
      "一一乀丂一丑一一": 6409,
      "一一丒一一乐一一": 6410,
      "丒一一一": 6411,
      "一乀一一丐丈一一": 6412,
      "一一丑一一丁一一": 6413,
      "亀亀一一一": 6414,
      "一一一丁一一一丄": 6415,
      "一一一一亀乒一一": 6416,
      "丈亀一一一": 6417,
      "丂一丂一": 6418,
      "一一丈丄丠一一一": 6419,
      "一一亠丆": 6420,
      "一一一且一亀乀一": 6421,
      "一亀丐一一一": 6422,
      "一一一两一丂丁一": 6423,
      "一一一两一丈丁一": 6424,
      "一一且一一丠丂一": 6425,
      "一一丘一一": 6426,
      "一一上一一一丐一": 6427,
      "一一乐丐一": 6428,
      "丁一丠一": 6429,
      "一一丂一一丈丁一": 6430,
      "一一丈一一两一一": 6431,
      "一一乀丂一亀一一": 6432,
      "丂丐一一": 6433,
      "一一一一丐一丁一": 6434,
      "一一一丂丠丂一一": 6435,
      "一丠一一且一一一": 6436,
      "一一三一一一丄一": 6437,
      "一一丁一乀上一一": 6438,
      "一一乐一两一一一": 6439,
      "一一么一一乀丁一": 6440,
      "一一丁一丐丈一一": 6441,
      "一亀一一一一一丁": 6442,
      "一乀丈一一丄一一": 6443,
      "一丠一一丠丅一一": 6444,
      "一一一丠一一一丂": 6445,
      "一一一予一丄一一": 6446,
      "亠丒一": 6447,
      "一一一丄亀乀一一": 6448,
      "一一一丄丠上一一": 6449,
      "一一丈一一乄一一": 6450,
      "一一丢一一亀一一": 6451,
      "一一丠一亀且一一": 6452,
      "一一一三亀丐一一": 6453,
      "一一亀一一亀丄一": 6454,
      "一丈丄一一丐丈一": 6455,
      "一一一乄一丄一一": 6456,
      "一一一一丂丂一一": 6457,
      "一亀一一亀丐一一": 6458,
      "一一一丈一丐丁一": 6459,
      "一一亐一丠丁一一": 6460,
      "一一丐丈一一丄一": 6461,
      "一一乀丈亀丄一一": 6462,
      "一一亁丂一一一一": 6463,
      "一亀丂一丈一一一": 6464,
      "一一亠丂一一丂一": 6465,
      "一一丐一一予一一": 6466,
      "一一丂一乐丁一一": 6467,
      "一一丐一一乀乀一": 6468,
      "一一丈一一亀丂一": 6469,
      "一一且一一一丐一": 6470,
      "一一习一一": 6471,
      "丂一一亁一": 6472,
      "一一乀丠一一丂一": 6473,
      "一一丄一一亐一一": 6474,
      "亀一丄一": 6475,
      "一乀丠一一丂丁一": 6476,
      "一一一丁一予一一": 6477,
      "一一两一丈丁一一": 6478,
      "一乀丁一亀一一一": 6479,
      "一一一丂乀丠一一": 6480,
      "一一一上一一丐一": 6481,
      "一亀丂一一一丂一": 6482,
      "一一丈一丠丄一一": 6483,
      "一亀乁": 6484,
      "一一一乒一丄丂一": 6485,
      "丰丂一": 6486,
      "一一乐一一一丐一": 6487,
      "一一丁一一两一一": 6488,
      "一一一一一両丂一": 6489,
      "一一一一丈丠一一": 6490,
      "一亨丄一": 6491,
      "一一个一一丠一一": 6492,
      "一一一丈一两一一": 6493,
      "一一什一丠一一一": 6494,
      "一一一一亀丐丁一": 6495,
      "一一一乁一丠一一": 6496,
      "丂一丠一一": 6497,
      "一一一一亀一丠一": 6498,
      "一乀丠一一一丐一": 6499,
      "乃一一": 6500,
      "一一一丂丐丅一一": 6501,
      "一一丁一交一一一": 6502,
      "一乀丈一一亀一一": 6503,
      "一一么一一丂丁一": 6504,
      "一一丠丁一三一一": 6505,
      "一丠一丈一一一一": 6506,
      "一一一一亀丌一一": 6507,
      "一一乐七": 6508,
      "一一丈丁乀丈一一": 6509,
      "仈丂一一": 6510,
      "丈丁": 6511,
      "一一一一乁一一一": 6512,
      "一一一一亴一一一": 6513,
      "一一丂一乀三一一": 6514,
      "一一一一什上一一": 6515,
      "一一丄一一丠丄一": 6516,
      "一乀一一乀丅一一": 6517,
      "亀丁": 6518,
      "一一一乔一亀一一": 6519,
      "一一丨一乐丂一一": 6520,
      "一一一一一乆一一": 6521,
      "一一一一予丁一一": 6522,
      "乀一丁一": 6523,
      "亐丐一": 6524,
      "一一丁一一乀丠一": 6525,
      "一一丠上一一": 6526,
      "一一丐丈乀一一一": 6527,
      "一一丂丁一一丐一": 6528,
      "一一乀丂一且一一": 6529,
      "一一乀丂丠丄一一": 6530,
      "一丈乀": 6531,
      "一亀丘一一一一一": 6532,
      "一丈一一乀丁一一": 6533,
      "一一一丈一久一一": 6534,
      "一一丁一一丑一一": 6535,
      "一一丨一一乀丄一": 6536,
      "一一乒一一一丁一": 6537,
      "一一亀丄一乀一一": 6538,
      "亁乀一": 6539,
      "一丈丄一丐一一一": 6540,
      "一乀丄一一丄一一": 6541,
      "一一乐丁丠一一一": 6542,
      "一一一丈丁亀丈一": 6543,
      "一乀一一一丐丈一": 6544,
      "一一乁一一丂一一": 6545,
      "一一一一一丁乀一": 6546,
      "一乒丁": 6547,
      "一一乄一一一丁一": 6548,
      "一一一丁一丩一一": 6549,
      "一一丐丁一丄一一": 6550,
      "一丠両一一一一一": 6551,
      "一亀丑": 6552,
      "乄丄一": 6553,
      "一一両一一乀一一": 6554,
      "一一丑一一乀一一": 6555,
      "一仐一一一": 6556,
      "云一一一": 6557,
      "一一丂丅一一一一": 6558,
      "一乀丌": 6559,
      "一丠一一亐一一一": 6560,
      "东一一一一": 6561,
      "一一一丁一两一一": 6562,
      "一习丁一一": 6563,
      "一一一丂一五一一": 6564,
      "一乀丂一一一丁一": 6565,
      "一亀且一一丐一一": 6566,
      "一乀一一丠丁一一": 6567,
      "一乤": 6568,
      "一一交一一一丂一": 6569,
      "一一丐乀一": 6570,
      "一一丁一亠丄一一": 6571,
      "一一乀一丐丁一一": 6572,
      "一一一一一丈丄丂": 6573,
      "一一丈丄一丢一一": 6574,
      "一一丠一亀丐一一": 6575,
      "一一一丢丁": 6576,
      "一一一丄一丈丈一": 6577,
      "一一乂一一亀一一": 6578,
      "一一一一一亀丅一": 6579,
      "一一一买一一一一": 6580,
      "一一个一乀一一一": 6581,
      "一一一一一中一一": 6582,
      "一一丈一一丠丠一": 6583,
      "一一丠丂一丈一一": 6584,
      "一亀乀一一一亁一": 6585,
      "习丂一一": 6586,
      "一丐一一一乐一一": 6587,
      "一一亀一丂一一一": 6588,
      "一一一丁丠丐一一": 6589,
      "一五一一一一一一": 6590,
      "一一一丂一丐丂一": 6591,
      "一乀一丁一": 6592,
      "乒丁": 6593,
      "一一亀丈乀丄一一": 6594,
      "一一一丩一丐一一": 6595,
      "一一么丁乀一一一": 6596,
      "一一两一乀丁一一": 6597,
      "一仠一一一一一一": 6598,
      "丢丁一一": 6599,
      "一一一且一丠丐一": 6600,
      "一予一一": 6601,
      "一一一亐一丠一一": 6602,
      "一丈乀一一一一一": 6603,
      "一一亄一一一丈一": 6604,
      "乄丠一": 6605,
      "一一亀乊一": 6606,
      "一一丁一亨一一一": 6607,
      "一亀丄一一丂一一": 6608,
      "一丐一一两一一一": 6609,
      "一一一丂一丢一一": 6610,
      "一一一两一丁一一": 6611,
      "一一亀丄一丠丐一": 6612,
      "一一丂一一个一一": 6613,
      "丒一一一一一": 6614,
      "一一一一亀丘一一": 6615,
      "一丈一一一丄丂一": 6616,
      "一一一丠一乔一一": 6617,
      "一一一一一乔丁一": 6618,
      "一一一一丨丅一一": 6619,
      "一一丂一一丐丂一": 6620,
      "一么上": 6621,
      "一一一亁一丐一一": 6622,
      "一一丠一一乂一一": 6623,
      "一一乀一一丕一一": 6624,
      "一一丄一一丢一一": 6625,
      "一一両一一亁一一": 6626,
      "一一一井一一一一": 6627,
      "一一乀一亄一一一": 6628,
      "一一一丂一乀丁一": 6629,
      "一一乀丂丁": 6630,
      "一一乀丄一丐一一": 6631,
      "一一丠丈一乀一一": 6632,
      "一一一一一乄丂一": 6633,
      "一一乀丂一丒一一": 6634,
      "一一一一一乂丄一": 6635,
      "一一交丂一丄丂一": 6636,
      "一一乀丁亀丒一一": 6637,
      "一乀乂一一一一一": 6638,
      "丂一丈一一": 6639,
      "一一一一乀一丐一": 6640,
      "一一乀丠一亀一一": 6641,
      "一一丠一两一一一": 6642,
      "乂丁": 6643,
      "一一一一乀予一一": 6644,
      "一乀一丈": 6645,
      "一一丐一一么一一": 6646,
      "一一丄一亄一一一": 6647,
      "仁一一": 6648,
      "一一一一一丠亀一": 6649,
      "一一予一丐一一一": 6650,
      "一一亀一一一一丄": 6651,
      "一一丁丂": 6652,
      "一一一乀一上一一": 6653,
      "一一么丅一丈丄一": 6654,
      "么三一": 6655,
      "一丄一一一一丈一": 6656,
      "一丄丂一一丄一一": 6657,
      "一一亀丒一严一一": 6658,
      "一一丈丄一一丈一": 6659,
      "一一丒一丈一一一": 6660,
      "一一丐一丐丈一一": 6661,
      "一一一丒一乀一一": 6662,
      "一一亀丈一丈一一": 6663,
      "一一丩一一亀一一": 6664,
      "一乨一一一一一一": 6665,
      "両丄一": 6666,
      "一一丄一一五一一": 6667,
      "一一一丂一一一丄": 6668,
      "一一一乐一丂一一": 6669,
      "一一乀丄丠丂一一": 6670,
      "亀丈": 6671,
      "一丈丄一一一丂一": 6672,
      "一一丄丁乀一一一": 6673,
      "一乐一一一丂一一": 6674,
      "亂丈一一": 6675,
      "一一丂一么丂一一": 6676,
      "一一一一一乀丢一": 6677,
      "一一一丑一丨一一": 6678,
      "一一一乀一乀丠一": 6679,
      "一一一一仔一一一": 6680,
      "一一予一亀一一一": 6681,
      "一一一一仈一一一": 6682,
      "一一一一一丂亀一": 6683,
      "一乀丁一一乀一一": 6684,
      "一一上一一丐丁一": 6685,
      "一一一丈一亁一一": 6686,
      "一一丄七": 6687,
      "一一亄一一一丁一": 6688,
      "一一一丈亀丈一一": 6689,
      "一亨丄一一一一一": 6690,
      "一丈丁一一丄一一": 6691,
      "一一一乀丈一一一": 6692,
      "一一五一一丁一一": 6693,
      "一一丠丐一丠丠一": 6694,
      "一一丠丄一両一一": 6695,
      "一一一丁予一一一": 6696,
      "一一一丁予丂一一": 6697,
      "一一亀一一丐丂一": 6698,
      "一一丈一一乀丈一": 6699,
      "一一一丁丐丁一一": 6700,
      "一一一亀丁": 6701,
      "一乀一一一丢一一": 6702,
      "一一亁一乀丄一一": 6703,
      "一一一一一交": 6704,
      "一一丠一一丠丄一": 6705,
      "一一一亀一丈丄一": 6706,
      "一丐一一一亁一一": 6707,
      "一一亀丐一乀一一": 6708,
      "一一予一一丂一一": 6709,
      "一一一且丂一一一": 6710,
      "一一乁丁一一一一": 6711,
      "一一一乂一丈一一": 6712,
      "一丄一一乐一一一": 6713,
      "一一一丂亀丈一一": 6714,
      "一一一丠一么一一": 6715,
      "一一乀一丨丁一一": 6716,
      "丨丈一": 6717,
      "一一丐一一乀丈一": 6718,
      "一一亐一乀丄一一": 6719,
      "一乐丠一": 6720,
      "一亀乑": 6721,
      "一一亀丄一丢一一": 6722,
      "一一丐一一一一丄": 6723,
      "一一一丄丠": 6724,
      "一一丈一丠三一一": 6725,
      "一一丂一一亀丂一": 6726,
      "一一丠一一丐丁一": 6727,
      "一一一乡": 6728,
      "一亀亄一一一一一": 6729,
      "亐一一一一": 6730,
      "一一一丑亀丈一一": 6731,
      "一亠丒一": 6732,
      "一亀一一丐丈一一": 6733,
      "一乀一丠": 6734,
      "一一一丂丠丑一一": 6735,
      "一一丐一一五一一": 6736,
      "一一一丄一亂一一": 6737,
      "一一丈丁亐丈一一": 6738,
      "一一丐丁亀丐一一": 6739,
      "一一一一一一万一": 6740,
      "一一丈一一丠丁一": 6741,
      "一丁一一丄一一一": 6742,
      "一乀一丐": 6743,
      "一一一一习丅一一": 6744,
      "一一亐一亀丄一一": 6745,
      "一一丄一亐丄一一": 6746,
      "一一一丈一一一丄": 6747,
      "一一一丩一乀一一": 6748,
      "丠丁": 6749,
      "一一一丄一乀丄一": 6750,
      "一亀一一丠丅一一": 6751,
      "一一一一一乀且一": 6752,
      "一一丄丂一丠丐一": 6753,
      "一一乀丠一乀乀一": 6754,
      "一一一一亐丁一一": 6755,
      "丂一一一一一一": 6756,
      "一一习一一丈一一": 6757,
      "一一一丒丁一一一": 6758,
      "一一丂一丠丅一一": 6759,
      "一一乀乄": 6760,
      "一一且一一一丠一": 6761,
      "亀丁一一一一一一": 6762,
      "一一丠一么丂一一": 6763,
      "亀上": 6764,
      "一一亀且一亀乀一": 6765,
      "一一丄一乀上一一": 6766,
      "一亀丨一": 6767,
      "一一一一一亨丂一": 6768,
      "一亀乀丁一一一一": 6769,
      "一丠一一一丨一一": 6770,
      "一一一丨一一丄一": 6771,
      "丨丁": 6772,
      "一一乀下": 6773,
      "一一乄一一丠一一": 6774,
      "一一丈一一丐丁一": 6775,
      "了一一一一": 6776,
      "一一亀乂一丐一一": 6777,
      "一一乀丠一一亁一": 6778,
      "一一亀丄两一一一": 6779,
      "一一么丈一一一一": 6780,
      "一亐丐一一一一一": 6781,
      "交丄一一": 6782,
      "一一一一一丈亀一": 6783,
      "一一丘丁": 6784,
      "一一亀一丠三一一": 6785,
      "一乀丈一亀一一一": 6786,
      "一丐丂一一丐一一": 6787,
      "亀一一一乀一一一": 6788,
      "一一丄一亀丒一一": 6789,
      "一一亐丂一一丂一": 6790,
      "一一一一且丂一一": 6791,
      "一一一一丠一丈一": 6792,
      "一亀一一乄一一一": 6793,
      "一一一亀一乀丠一": 6794,
      "一一丐丈一且一一": 6795,
      "丂丠丕一一": 6796,
      "一一一丁丠丄一一": 6797,
      "一一什一一丄一一": 6798,
      "並一": 6799,
      "一一亂丂一一一一": 6800,
      "一一一丂丁丐一一": 6801,
      "一乀下一一": 6802,
      "一一两一亀一一一": 6803,
      "一一丈丄一亀乀一": 6804,
      "一一一丠一乄一一": 6805,
      "亡一一一": 6806,
      "一乀丁一一一丂一": 6807,
      "丂一丄一": 6808,
      "一一丂一丠丄一一": 6809,
      "一一一一亘一一一": 6810,
      "一一一一丸一一一": 6811,
      "一一乐丄一一": 6812,
      "一一亠丂一丁一一": 6813,
      "一一亀丒一一": 6814,
      "一一丁亀": 6815,
      "一一丄上一一一一": 6816,
      "一一什一一丐一一": 6817,
      "一亀丐一一丠一一": 6818,
      "一一亐丠一": 6819,
      "一一丂一一乒一一": 6820,
      "么丐一": 6821,
      "一一两一一乀一一": 6822,
      "一一一一乀一丈一": 6823,
      "一一乐一丈丂一一": 6824,
      "一一习一一丂一一": 6825,
      "一一亐一丐一一一": 6826,
      "一一亀乄一丠丐一": 6827,
      "一亀丑一一一一一": 6828,
      "一一么丁一一丄一": 6829,
      "一一乒一交一一一": 6830,
      "一亀一一乐丂一一": 6831,
      "一一一一一乀丒一": 6832,
      "一一亄一丨一一一": 6833,
      "一一一丐一丒一一": 6834,
      "一一亱": 6835,
      "一一亀一一亀丈一": 6836,
      "一一両一亀一一一": 6837,
      "一一一乐一丄丂一": 6838,
      "一一一丘一丄一一": 6839,
      "一一丁一一亨一一": 6840,
      "丰丁一一": 6841,
      "一一亀丁一丈一一": 6842,
      "一丈丄一丨一一一": 6843,
      "丂一丈一": 6844,
      "一一丒一一丠一一": 6845,
      "予丐一一": 6846,
      "一亀亠一一一一一": 6847,
      "一一一丩一丈一一": 6848,
      "一一丠一丂一一一": 6849,
      "一一一一一一亨一": 6850,
      "一一亀丁一一": 6851,
      "一一丅丁一一一一": 6852,
      "一一一丐亀": 6853,
      "一一么一一一丄一": 6854,
      "一丠丐一亠一一一": 6855,
      "一一一习丁一一一": 6856,
      "一一丂一一亀乀一": 6857,
      "一一一亠一乀丄一": 6858,
      "乍一一": 6859,
      "一一乀一亐丄一一": 6860,
      "一一丂一一一上一": 6861,
      "一一一乂丁": 6862,
      "一一丠丂一両一一": 6863,
      "一一乒丁一丂丁一": 6864,
      "一一丁一丠": 6865,
      "一一一个一丄一一": 6866,
      "一一一亄一丈丄一": 6867,
      "一一亂一丐一一一": 6868,
      "一一乀一一丐丂一": 6869,
      "一一一丄一丠丁一": 6870,
      "一一丄一丁一一一": 6871,
      "一丄丂一一丠一一": 6872,
      "丁乀丄一": 6873,
      "一一亀予": 6874,
      "一一乀丅一丂一一": 6875,
      "一一亠一一亀乀一": 6876,
      "一一丄丂丐一一一": 6877,
      "一一么三": 6878,
      "一一丐丈一丐丐一": 6879,
      "一亰一一一一一一": 6880,
      "一一丄一一予一一": 6881,
      "丄丁": 6882,
      "一一亀三": 6883,
      "一丠一一一上一一": 6884,
      "一亀一一一丒一一": 6885,
      "一一丠丂丐一一一": 6886,
      "一一乕一一一一一": 6887,
      "一仄": 6888,
      "乡一一": 6889,
      "一一么一且一一一": 6890,
      "一一一丨一一丈一": 6891,
      "丂乀丄一": 6892,
      "一一一丁一一丂丁": 6893,
      "一一両丂一": 6894,
      "一亀一一一丠": 6895,
      "一一丂一亀且一一": 6896,
      "一乂丁一一一一一": 6897,
      "亀乐": 6898,
      "一一亀一亀丨一一": 6899,
      "一一丈丁亐一一一": 6900,
      "一一丄一一丐丐一": 6901,
      "一一亠丄一丠一一": 6902,
      "一一予一一乀一一": 6903,
      "一一丄丂一一乀一": 6904,
      "一一丐一一丠丂一": 6905,
      "一一丂一一乐丁一": 6906,
      "一亀一乀一一一一": 6907,
      "一一一一亀一一": 6908,
      "一一丈一一丑一一": 6909,
      "一一丁一一亄一一": 6910,
      "一一一丂丁亀一一": 6911,
      "一一交一丈一一一": 6912,
      "一一乀一一一丈丄": 6913,
      "一一一一丂丄一一": 6914,
      "一一乀不": 6915,
      "一亀一丂一": 6916,
      "一一亀一一亀亀一": 6917,
      "一一一丄亀丒一一": 6918,
      "一一一丈一五一一": 6919,
      "一亠且一": 6920,
      "一一乒一一丂丁一": 6921,
      "一丠丄一丈一一一": 6922,
      "一一乀一一亄一一": 6923,
      "一一丒一一一丈一": 6924,
      "一一丩一乐一一一": 6925,
      "一一両一一丠丄一": 6926,
      "一丠一一亠": 6927,
      "一丈一一一一一": 6928,
      "一一乀一一严一一": 6929,
      "一一丈一一丈丈一": 6930,
      "一一予一一一丂一": 6931,
      "一一一三一丒一一": 6932,
      "一一丐一一丢一一": 6933,
      "一一亀乒一一一一": 6934,
      "一一乀一乀丒一一": 6935,
      "丂丠丑一": 6936,
      "一一一乢一一一一": 6937,
      "一一丐一丈丂一一": 6938,
      "一一丄乀一": 6939,
      "一一乒一亀一一一": 6940,
      "一一一一一丁丠一": 6941,
      "一一一亂一丐一一": 6942,
      "一一亀五": 6943,
      "一一一一一亀丢一": 6944,
      "一一一亀一一一丁": 6945,
      "一一乂一乐一一一": 6946,
      "一亀乔一一乀丠一": 6947,
      "一一一丂一予一一": 6948,
      "一一一亁一丈丄一": 6949,
      "一一乀丄一丁一一": 6950,
      "乂丠一": 6951,
      "丐丠一": 6952,
      "一一一丂乀且一一": 6953,
      "一一一一亀丕一一": 6954,
      "一一一丠一乀丁一": 6955,
      "一一一丈一亠一一": 6956,
      "一丈一一丨丁一一": 6957,
      "一一乂丁一丈丄一": 6958,
      "一丁一一一丠一一": 6959,
      "一亀丐一一丐丂一": 6960,
      "一一乀丂丐一一一": 6961,
      "一一争一乀丠一一": 6962,
      "一一亐一一亀丂一": 6963,
      "一一丨一一一丠一": 6964,
      "一一丠一一一一丄": 6965,
      "一一一丂一丄丄一": 6966,
      "一一三一丈一一一": 6967,
      "一一一丐一亂一一": 6968,
      "一一丠丐亀一一一": 6969,
      "一一丠一亠丂一一": 6970,
      "一一亐丐一一一一": 6971,
      "一乀丂一一丠一一": 6972,
      "丶一一": 6973,
      "丈一丐一一": 6974,
      "一丐一丂一一一一": 6975,
      "一亀乀一丄丂一一": 6976,
      "一一一丄丠丁一一": 6977,
      "一一乀一一両一一": 6978,
      "一一一乀一丐丈一": 6979,
      "一一么一乄一一一": 6980,
      "一一亠丄乀丁一一": 6981,
      "一一一丂一交一一": 6982,
      "一一丢一丐丁一一": 6983,
      "一亠一一一丈一一": 6984,
      "一一一丁一严一一": 6985,
      "丄一丠一一": 6986,
      "一一亠上一": 6987,
      "一一丠丂亀一一一": 6988,
      "一一乐丂一丐一一": 6989,
      "一丂丄一一一一一": 6990,
      "一一一予亀丈一一": 6991,
      "一一一严一乀一一": 6992,
      "一丐丂一丐一一一": 6993,
      "丂乀丑一一": 6994,
      "一一一一亀一丐一": 6995,
      "一一乀丢一丐一一": 6996,
      "一亄丈一": 6997,
      "一一一乄一一丂一": 6998,
      "一乄一一": 6999,
      "一一一一一丕": 7000,
      "一一丠丅亀一一一": 7001,
      "一乀一一乀丈一一": 7002,
      "一一一一丂丁一一": 7003,
      "一一一一丁一亀一": 7004,
      "一一亀丄一两一一": 7005,
      "一一亀丁一丠一一": 7006,
      "一一一一一亀一丁": 7007,
      "一一丐丈一一丠一": 7008,
      "一一一乀丁亀一一": 7009,
      "一亀一一一丐": 7010,
      "一一乀一一一丄丂": 7011,
      "一一一丂乀丈一一": 7012,
      "一一乐一一亀丈一": 7013,
      "一一丂一一丑一一": 7014,
      "一一一丠一乂一一": 7015,
      "一一交一乀一一一": 7016,
      "一一丨一么一一一": 7017,
      "一亀丐一一一丂一": 7018,
      "一丈一一一亁一一": 7019,
      "一一一一一三": 7020,
      "一一丌丂一一一一": 7021,
      "一一亐上一丐丈一": 7022,
      "一一一亀一亠一一": 7023,
      "一一一丐一乀丠一": 7024,
      "一亀且一亀一一一": 7025,
      "一乀一丂一": 7026,
      "一一乀上亀乄一一": 7027,
      "一一亀七一": 7028,
      "一一亐丐一": 7029,
      "一一一丒一両一一": 7030,
      "一一丄丠一": 7031,
      "一一乀上一丁一一": 7032,
      "一一一一一亠丐一": 7033,
      "一一乐一一丄丂一": 7034,
      "一一丈一亨一一一": 7035,
      "一亐丄一": 7036,
      "一一丨丁一丈一一": 7037,
      "一一丠丂乀丄一一": 7038,
      "一亀乀一亠丄一一": 7039,
      "仂一一": 7040,
      "一一亩一一亀乀一": 7041,
      "一一一丢丠丂一一": 7042,
      "丒丈一": 7043,
      "一一丠一一丕一一": 7044,
      "一丠一一一乀丠一": 7045,
      "一一且一丨丁一一": 7046,
      "一一亠丠": 7047,
      "一一丈丄乀丁一一": 7048,
      "一一亀丄一一丐一": 7049,
      "一一一二一一一一": 7050,
      "一丄丐一一一一一": 7051,
      "一乀一丠一一一一": 7052,
      "一一丐丈一乄一一": 7053,
      "一一亀一一么一一": 7054,
      "一一乔一亨一一一": 7055,
      "一一一丐一一一丄": 7056,
      "一亀丈一一丠一一": 7057,
      "一一丠一一乄一一": 7058,
      "一一一丢一丒一一": 7059,
      "一一丁一亐丂一一": 7060,
      "一一亀个一一一一": 7061,
      "一乀一一丐丂一一": 7062,
      "一一丠丁丐丂一一": 7063,
      "一一亄丂一丐丈一": 7064,
      "一一丰一一丄一一": 7065,
      "一乂丁一一": 7066,
      "一乀个一一丠丐一": 7067,
      "一一一丄乀丢一一": 7068,
      "一一亄一丠丄一一": 7069,
      "一一习丑": 7070,
      "一一亀丐一一乀一": 7071,
      "一一一亀一乀丄一": 7072,
      "一一亀丐一亀乀一": 7073,
      "一一乀一丂一一一": 7074,
      "一亀乀一亀丂一一": 7075,
      "一么丂一": 7076,
      "一一五丂一丐丈一": 7077,
      "一一争一乀一一一": 7078,
      "一一一丑丐丁一一": 7079,
      "一一亠一丠丁一一": 7080,
      "一一三丁一一一一": 7081,
      "一一丒一丄一一一": 7082,
      "一一一亐一予一一": 7083,
      "一一一乄乀丄一一": 7084,
      "一一亠一": 7085,
      "一一一两一丄一一": 7086,
      "一一丢一一丐一一": 7087,
      "一一三一一丨一一": 7088,
      "一两丂一一一一一": 7089,
      "一一三一一乀一一": 7090,
      "一一丐丁乀一一一": 7091,
      "一丐一一亐丂一一": 7092,
      "一一乀丅一丈丄一": 7093,
      "一丠一一亠丂一一": 7094,
      "一乄丂一一一一一": 7095,
      "一一丠且一一": 7096,
      "一丐一一一一一": 7097,
      "一亐一一一丂一一": 7098,
      "一丂丁一一亁一一": 7099,
      "一一亠一一丈丄一": 7100,
      "一一丰一一": 7101,
      "一亀且一一乀一一": 7102,
      "一丠丁一一亀一一": 7103,
      "亀乔": 7104,
      "一一乄一一丁一一": 7105,
      "一一丅一一予一一": 7106,
      "一一丄一亀丈一一": 7107,
      "一一亁一一丅一一": 7108,
      "乂丁一一": 7109,
      "一一丠一一亀亀一": 7110,
      "一一丄一一亨一一": 7111,
      "一一丈丁亀丂一一": 7112,
      "一一丁一一丈丁一": 7113,
      "一一丁一两丁一一": 7114,
      "一一一交一丈一一": 7115,
      "一一乊丁一丈丄一": 7116,
      "一丐一丄一一一一": 7117,
      "一乀丠一乀丁一一": 7118,
      "一一一一一一不一": 7119,
      "一一一一両一一一": 7120,
      "一一一丈丄一一一": 7121,
      "一一丐一两丁一一": 7122,
      "一乀亄": 7123,
      "一丐丈一一亁一一": 7124,
      "一一丨丄乀一一一": 7125,
      "一一严一丈一一一": 7126,
      "予丈一": 7127,
      "一一両一一一丄一": 7128,
      "一一乀三一丈丄一": 7129,
      "一一一一乤一一一": 7130,
      "一一丠両一": 7131,
      "一一丄一一丠丁一": 7132,
      "一一且一亠丄一一": 7133,
      "亀一一一一丁一一": 7134,
      "一一丄一丐丂一一": 7135,
      "一一一丠一丐丂一": 7136,
      "一乀义": 7137,
      "一一丠一丈丄一一": 7138,
      "一一亁一丠丅一一": 7139,
      "一一丁丄一": 7140,
      "一亀乀一一一丠一": 7141,
      "一一一丢一乀一一": 7142,
      "一一乀三亀一一一": 7143,
      "一一一一丠丐丈一": 7144,
      "一乀亡": 7145,
      "一一丐一乄一一一": 7146,
      "一乀丣": 7147,
      "一一丈丁一一丂一": 7148,
      "一丨丂一一一一一": 7149,
      "一一丠一一亨一一": 7150,
      "一一丘丄一一一一": 7151,
      "一一一一五": 7152,
      "么三一一": 7153,
      "一一丐一乐丁一一": 7154,
      "一乀丁一一一丁一": 7155,
      "一一一一一予丄一": 7156,
      "一一一五一亀一一": 7157,
      "一一丠両一一一一": 7158,
      "一一予一乀丈一一": 7159,
      "一一丈一一丨丁一": 7160,
      "一一一亀丐一一一": 7161,
      "一一亀一乄丁一一": 7162,
      "一一亐丂丠丐一一": 7163,
      "一一两一一亁一一": 7164,
      "一一丄丂亠一一一": 7165,
      "一一亡一一丄丂一": 7166,
      "一一丨丁一丠丐一": 7167,
      "丢丁": 7168,
      "一一亠丂一丄丂一": 7169,
      "一一丐丂一一丐一": 7170,
      "一一一一丠一丄一": 7171,
      "一乀丠一乐丂一一": 7172,
      "一一五一丠丐一一": 7173,
      "一一乀一一乑一一": 7174,
      "一五丂一": 7175,
      "一一一一一亨丄一": 7176,
      "一一丈一一乐丁一": 7177,
      "一一一丢丁一一一": 7178,
      "一一丐丂乀丁一一": 7179,
      "一一丐丂一丅一一": 7180,
      "一一丠丄亀丂一一": 7181,
      "一亀丂一亠一一一": 7182,
      "一一一丕一个一一": 7183,
      "一丠一一一丈丄一": 7184,
      "一一一丐一丂丁一": 7185,
      "一一一一丠乄一一": 7186,
      "予丁一": 7187,
      "一一乀丄一乂一一": 7188,
      "一亪": 7189,
      "一一一一一亥一一": 7190,
      "一一一上亀乄一一": 7191,
      "一一一亠一丠一一": 7192,
      "一一一一一严": 7193,
      "一一亀丈一丠一一": 7194,
      "一乀一乀": 7195,
      "一一丠一乀个一一": 7196,
      "一一一丄丂一丄一": 7197,
      "一一亁一乀三一一": 7198,
      "一一一久一": 7199,
      "一一亀个一": 7200,
      "一一一両一一丈一": 7201,
      "一亀乔一": 7202,
      "一买一一一一一一": 7203,
      "一一一丅乀丢一一": 7204,
      "一一丈一亠丈一一": 7205,
      "一一一乂一丐丈一": 7206,
      "一一一五一丠丐一": 7207,
      "一一丄一丐丈一一": 7208,
      "一一么一一亀一一": 7209,
      "乤丁一一": 7210,
      "一丠一一一一一": 7211,
      "一一习丁一": 7212,
      "一久": 7213,
      "一丠丐一一亁一一": 7214,
      "一一丐丁一亀一一": 7215,
      "亠且一": 7216,
      "一丐一一一一乀一": 7217,
      "一一丠丅乀丢一一": 7218,
      "一丐丁一一丈一一": 7219,
      "一一乀丄亀丈一一": 7220,
      "一乀丈一一一丁一": 7221,
      "一一一一亰丂一一": 7222,
      "一一一一一一下一": 7223,
      "一一一一一丂乀一": 7224,
      "一一一三一乄一一": 7225,
      "一一亀且一争一一": 7226,
      "一亀丄一一丠一一": 7227,
      "一一一丨丁乀一一": 7228,
      "一亀一丄": 7229,
      "一一丄一一乔一一": 7230,
      "一一丠一一乊一一": 7231,
      "一一亀丈予一一一": 7232,
      "一一亀丒一丐丈一": 7233,
      "一一丒丁一乀一一": 7234,
      "一一一丁一一丨一": 7235,
      "一亀一一亀丈一一": 7236,
      "乂丈一": 7237,
      "一一丈一一一且一": 7238,
      "一一一丈乀丂一一": 7239,
      "一乀一一一亀乀一": 7240,
      "一丠一丂": 7241,
      "一一丂一乀丄一一": 7242,
      "一一乂一亄一一一": 7243,
      "丠丑一": 7244,
      "一乀丠一么一一一": 7245,
      "一一三一一丐一一": 7246,
      "一亀乀一亐丂一一": 7247,
      "一一一乀丁一丈一": 7248,
      "一一一乀丂丠一一": 7249,
      "一一丈一一一丄丂": 7250,
      "一一亀丒一丁一一": 7251,
      "乀乀一一一一一一": 7252,
      "一一一丐亀丈一一": 7253,
      "一丐丂一乀一一一": 7254,
      "一乀丠一么丁一一": 7255,
      "丕一一一一一": 7256,
      "一一丨丄一一": 7257,
      "一一一一丈乀一一": 7258,
      "乀严一一": 7259,
      "一一乐丁亀一一一": 7260,
      "一丠丄一一乀一一": 7261,
      "一一丨一乀三一一": 7262,
      "一一乐一亐一一一": 7263,
      "一一一両一丒丁一": 7264,
      "一一丄丅一一一一": 7265,
      "一一丨一一丅一一": 7266,
      "一一一亴": 7267,
      "一一三一乐一一一": 7268,
      "一一一七一丐一一": 7269,
      "一亀乘": 7270,
      "一一一丄一亄一一": 7271,
      "一一乐丐": 7272,
      "一一乀一一丠丂一": 7273,
      "一丂丁一一丈一一": 7274,
      "一一丐一丂一一一": 7275,
      "一一一丈乀且一一": 7276,
      "丠丄": 7277,
      "一一丐一丠丕一一": 7278,
      "一一一一一丠且一": 7279,
      "一乀丈一一丈丁一": 7280,
      "一一一丄一严一一": 7281,
      "一一五一亀一一一": 7282,
      "一乀一一亐丂一一": 7283,
      "一一亀丂一一丠一": 7284,
      "一一丐丈亀丂一一": 7285,
      "丠乄一一": 7286,
      "一一亠丄乀一一一": 7287,
      "一一乀丅一一丄一": 7288,
      "一一一丠丁乀一一": 7289,
      "一一乀一乀丅一一": 7290,
      "一一一一一丱一一": 7291,
      "一一上一一丠丐一": 7292,
      "一丂丁一丈一一一": 7293,
      "一一丕一一丐一一": 7294,
      "一一丈丅乀丢一一": 7295,
      "亀乄": 7296,
      "一一一丅亀乀一一": 7297,
      "一一亀一予一一一": 7298,
      "一一一一一丄一丁": 7299,
      "一一乀三亀丂一一": 7300,
      "一一亄丂一丐一一": 7301,
      "一一一一丁乐一一": 7302,
      "一丠一一一一亀一": 7303,
      "一一乀丁乀丂一一": 7304,
      "一乔丂一": 7305,
      "一亀丄一丈一一一": 7306,
      "一一丐丢一": 7307,
      "一一丈七": 7308,
      "丂一一丁": 7309,
      "一一一亠丁一一一": 7310,
      "一一一一五丂一一": 7311,
      "一一一一一亄丈一": 7312,
      "一一丐三亀一一一": 7313,
      "亨丁一": 7314,
      "一一么一乀丂一一": 7315,
      "一一乀丄一丂丁一": 7316,
      "一乀一乀一一一一": 7317,
      "一一一丄一一一丄": 7318,
      "一乀一丄": 7319,
      "一一亀亊": 7320,
      "一一乐一一上一一": 7321,
      "一一丒一一亀一一": 7322,
      "一一乄一乀一一一": 7323,
      "一丐一一一丠丐一": 7324,
      "一一亀上一丄一一": 7325,
      "一乀上一一丈一一": 7326,
      "一一一丐一一亁一": 7327,
      "一与": 7328,
      "一一一一亂一一一": 7329,
      "一一丈丆": 7330,
      "一一一丈一乒一一": 7331,
      "丈丐一一": 7332,
      "一一丄一一亠丂一": 7333,
      "一乀一一一三一一": 7334,
      "一一亀丐一三一一": 7335,
      "一一一一一亅": 7336,
      "一一乀丈一乂一一": 7337,
      "一亀一一一一一": 7338,
      "一一且丂一乀一一": 7339,
      "乬一一": 7340,
      "一一丠丢": 7341,
      "一乀且一": 7342,
      "一一一一仄一一一": 7343,
      "一一亐一一一": 7344,
      "一一且一一乀丠一": 7345,
      "一一两一么一一一": 7346,
      "亠一一一一一一一": 7347,
      "一一丈丁一一丐一": 7348,
      "一一丠上一丁一一": 7349,
      "一一亠一一一丠一": 7350,
      "一一一一一亀两一": 7351,
      "一一亨丁一一一一": 7352,
      "一一丰一一丁一一": 7353,
      "一一五一一丐丈一": 7354,
      "一一上丁一丠一一": 7355,
      "丰丁一": 7356,
      "一一丠亀一": 7357,
      "两丁": 7358,
      "一一一一仐": 7359,
      "一一且一丠丐一一": 7360,
      "一一亀丄一丨一一": 7361,
      "一一严一一亀一一": 7362,
      "一一上一乐丂一一": 7363,
      "一一一一一丐亀一": 7364,
      "一一亀一丐丈一一": 7365,
      "一一亀乀一乀一一": 7366,
      "丆丁一": 7367,
      "一一一一一二一一": 7368,
      "一一丐上亀乄一一": 7369,
      "一一丁亀一一一一": 7370,
      "一一亩一一亁一一": 7371,
      "一一两丂一亀一一": 7372,
      "一一乐丂亠一一一": 7373,
      "一一亀一丐丂一一": 7374,
      "一丠丐一丈丄一一": 7375,
      "乀丩一一": 7376,
      "一一亀丈一丂一一": 7377,
      "一一一一一丅丂一": 7378,
      "一乀丑一": 7379,
      "一丄一一且一一一": 7380,
      "一一一一丈丄": 7381,
      "一一乀一一予一一": 7382,
      "一亠两": 7383,
      "一一丠一一亐一一": 7384,
      "一丠丐一丨丁一一": 7385,
      "一一一一丂一丠一": 7386,
      "一亀丠一一丁一一": 7387,
      "一一乊一一一丁一": 7388,
      "一一一一一上丄一": 7389,
      "一一丒一亠一一一": 7390,
      "一一丠一丄丁一一": 7391,
      "一一亀丂丠丑一一": 7392,
      "一一一一丂一乀一": 7393,
      "一一丂丁丈一一一": 7394,
      "一亀一一么丁一一": 7395,
      "一一予丄乀一一一": 7396,
      "一一一丒一一丂一": 7397,
      "一一丢一乐一一一": 7398,
      "一一乐丈亀一一一": 7399,
      "一一丠乂": 7400,
      "乐丠一": 7401,
      "一丄一一亠一一一": 7402,
      "一一乂一丐丈一一": 7403,
      "一一丨一一丂丁一": 7404,
      "一一乂丁一丈一一": 7405,
      "一一丂丁乀上一一": 7406,
      "一乄丄一一": 7407,
      "一丐一一亀乀一一": 7408,
      "一一丈丄一丈丈一": 7409,
      "一一乀义": 7410,
      "一一乂一一乀丈一": 7411,
      "一一丐丂亀丄一一": 7412,
      "一一一一一乊": 7413,
      "一一一丐一丠丂一": 7414,
      "一一丁丈": 7415,
      "一一亀丈一亀一一": 7416,
      "一一丆一一": 7417,
      "一一丐一一一丅一": 7418,
      "一一亄一丈丄一一": 7419,
      "一一亠丄一丄丂一": 7420,
      "一丁丁一一": 7421,
      "一亀一一一乔一一": 7422,
      "一一亀且一丂一一": 7423,
      "一一予丁": 7424,
      "一一一乂丁一一一": 7425,
      "一乀丄一丠一一一": 7426,
      "一一丐一乀丒一一": 7427,
      "一一丄丂亠丄一一": 7428,
      "一一乀三一乀一一": 7429,
      "一一丠严": 7430,
      "一一一亁一乀丠一": 7431,
      "一一丠丈一一": 7432,
      "一丨丅一一一一一": 7433,
      "一交丂一一一一一": 7434,
      "一一一一丈亀一一": 7435,
      "一一丠丂丐丁一一": 7436,
      "亀丁一": 7437,
      "一一一丨一乀丠一": 7438,
      "一一一一一丫一一": 7439,
      "一乀一丂": 7440,
      "一一一丁亐丈一一": 7441,
      "一一一丨一一亁一": 7442,
      "一一亨一丐一一一": 7443,
      "一一一丢一丑一一": 7444,
      "一一乀丁一丐丈一": 7445,
      "一一亀丂乀丠一一": 7446,
      "一一一七一丂一一": 7447,
      "一亠上": 7448,
      "一一丐一一亀丐一": 7449,
      "一一且丂一丐一一": 7450,
      "一一一三一乀丠一": 7451,
      "一一且丂丠一一一": 7452,
      "一一丐一丐": 7453,
      "一亀乀一丠丂一一": 7454,
      "一丠一丠": 7455,
      "一乀一一丨丁一一": 7456,
      "一亠丁": 7457,
      "一一么一亐一一一": 7458,
      "一一一丢一丐丁一": 7459,
      "一一一一一丢": 7460,
      "一一丈且一一一一": 7461,
      "一亀丄一一丁一一": 7462,
      "一一亀丈一丄丂一": 7463,
      "一一乀丄乄一一一": 7464,
      "一一一丐丁丈一一": 7465,
      "一亀丈丁一": 7466,
      "一一亀上一丑一一": 7467,
      "一乀丰": 7468,
      "一乀丠一一丐丈一": 7469,
      "一一丄一一交一一": 7470,
      "一一丨一一一乀一": 7471,
      "一一亄一乀丁一一": 7472,
      "一一争一一丠丐一": 7473,
      "一一丂一一乄一一": 7474,
      "一一丐丁丠丂一一": 7475,
      "一一亠丂一丠一一": 7476,
      "一一乐丁一丐一一": 7477,
      "一一丠一一乀丄一": 7478,
      "一丄一一丨一一一": 7479,
      "一一丐一乀丑一一": 7480,
      "丁丠一": 7481,
      "乔一一一一": 7482,
      "一一亄丂丠丑一一": 7483,
      "一一交一丠一一一": 7484,
      "一一丆丁一一一一": 7485,
      "一一一京": 7486,
      "一丄丅": 7487,
      "一丄丈": 7488,
      "一一亠丆一一一一": 7489,
      "一一丐丅亀一一一": 7490,
      "一一亡一一亀一一": 7491,
      "一一乐七一一一一": 7492,
      "一一丄一乐丄一一": 7493,
      "一乀丁一乐一一一": 7494,
      "一一亐丒": 7495,
      "一亀世一一": 7496,
      "一一一丈亀乄一一": 7497,
      "一一亐丂乀一一一": 7498,
      "一一丰丈一一一一": 7499,
      "亐丒一": 7500,
      "一丄乀一一一一一": 7501,
      "一一丈丅一丠一一": 7502,
      "一乀乐一一一一一": 7503,
      "一一丁一五一一一": 7504,
      "仠一": 7505,
      "一丈丠": 7506,
      "一一亀上一丐丈一": 7507,
      "一一一亅一丠一一": 7508,
      "一一亠一乀丅一一": 7509,
      "一一丐丁一丠一一": 7510,
      "亐丠一一": 7511,
      "一一丐丈丠丐一一": 7512,
      "乀一丂一": 7513,
      "一一乀丁乀丈一一": 7514,
      "一一丂丁乐一一一": 7515,
      "一一一乄一丈一一": 7516,
      "一一乀丁一一亀一": 7517,
      "一一一丐丁丑一一": 7518,
      "一一丁一一丠丂一": 7519,
      "一一丁一亀丈一一": 7520,
      "一一丄丂丠丁一一": 7521,
      "一一亀丂亀丐一一": 7522,
      "一乀一一五一一一": 7523,
      "一一亨一一丈一一": 7524,
      "一一丠丂一亁一一": 7525,
      "一一亀丐一一丈一": 7526,
      "一一乀丈一丅一一": 7527,
      "亀丈丁一": 7528,
      "一一乀丌一": 7529,
      "一亀丈一亀一一一": 7530,
      "一一乀丅亀丈一一": 7531,
      "一一一一一一乀丄": 7532,
      "一亀互": 7533,
      "一一一丈一乔一一": 7534,
      "一丈一一一一丠一": 7535,
      "一一丐一一乀丂一": 7536,
      "一亀丂一一丂丁一": 7537,
      "一一丐丈一一丂丁": 7538,
      "一一丨丄一丠一一": 7539,
      "一个一一一一一一": 7540,
      "一一亐一一一丁一": 7541,
      "一一丈丁亠一一一": 7542,
      "一一亀乀一一丐一": 7543,
      "一一両一": 7544,
      "一一丨丅一丠丐一": 7545,
      "一一一丂一丩一一": 7546,
      "一一亐一丈丄一一": 7547,
      "一乐一一一上一一": 7548,
      "一亀丒一一乀一一": 7549,
      "一一一乀丁一丂一": 7550,
      "一一丄丂亀乀一一": 7551,
      "一丂一一乐一一一": 7552,
      "一一一亀一么一一": 7553,
      "一一丐丁一一丄一": 7554,
      "一乀一一一一一": 7555,
      "一一丂一一乀丄一": 7556,
      "一一么丅一一": 7557,
      "一一一亨一": 7558,
      "一一一丄亀丐一一": 7559,
      "一一予一一丐一一": 7560,
      "一一么一丠丂一一": 7561,
      "一么一一乀一一一": 7562,
      "一一一丈一亀丂一": 7563,
      "一一丂丁乐丂一一": 7564,
      "一一一么一丂一一": 7565,
      "一一亀互": 7566,
      "一一丈一一乀丂一": 7567,
      "一一亀丁一丁一一": 7568,
      "一一一么一丄丂一": 7569,
      "一亀个一一一一一": 7570,
      "一一一丐一丠丄一": 7571,
      "一一丈丄一亁一一": 7572,
      "一一丄一一一亁一": 7573,
      "一一争一一丠一一": 7574,
      "一一丈丅一丠丐一": 7575,
      "一一丨丈一": 7576,
      "一一丁一乔一一一": 7577,
      "一一丐一一亠丂一": 7578,
      "一乀丠一丐丁一一": 7579,
      "一一乐丁一丂丁一": 7580,
      "丄一丐一一": 7581,
      "一一一丒一一丐一": 7582,
      "亐丢一一": 7583,
      "一一一丄一丑一一": 7584,
      "一一习一丐一一一": 7585,
      "一乀亠一一一一一": 7586,
      "一一一丁丐": 7587,
      "一一乐丅一": 7588,
      "一一一一一一与一": 7589,
      "一一丂丈一": 7590,
      "一一一丑一丐一一": 7591,
      "亀一一一一丂一一": 7592,
      "一一一一一一丐丄": 7593,
      "丁一丈丄": 7594,
      "一一乀丄一一丄一": 7595,
      "一一一交一丈丄一": 7596,
      "一亠一一亠一一一": 7597,
      "一亀丈一丐一一一": 7598,
      "一一亩一一亩一一": 7599,
      "一一一丠丁一丁一": 7600,
      "一一丈乀一": 7601,
      "一一一亩一一一一": 7602,
      "一丄丂一一一丁一": 7603,
      "一一丈丄一一丠一": 7604,
      "一一亂一丠一一一": 7605,
      "一一一么一丠一一": 7606,
      "一仔": 7607,
      "一丄丂一一丈丄一": 7608,
      "一一乀丐一乀一一": 7609,
      "一一亀一乄一一一": 7610,
      "一一丂丐一": 7611,
      "一一丠两一": 7612,
      "一一一丐一丑一一": 7613,
      "一一丐一乀丐一一": 7614,
      "一一丈丄丐丈一一": 7615,
      "一一一丂一么一一": 7616,
      "一亀乔一亀乔一一": 7617,
      "一一亀丂丠丅一一": 7618,
      "一一丄丁一丂一一": 7619,
      "一一一乊一一丈一": 7620,
      "一一乀乂一一一一": 7621,
      "一一丄一一一丅一": 7622,
      "一一一丁丠丅一一": 7623,
      "一一丑一一丈一一": 7624,
      "一一丠一一七一一": 7625,
      "一一亰丂一一一一": 7626,
      "一亐丐一": 7627,
      "一一一両一一丂一": 7628,
      "一一一丒一一丈一": 7629,
      "一一丈丄乀丂一一": 7630,
      "一乀丈一一丐一一": 7631,
      "丁丂": 7632,
      "一一一两一亀一一": 7633,
      "一一一丂一丐丁一": 7634,
      "一一亀丂一亀丂一": 7635,
      "一一亥一一丄丂一": 7636,
      "仐一": 7637,
      "一一一上乀丁一一": 7638,
      "一一一丄一丈": 7639,
      "一一丈一亀丠一一": 7640,
      "一一丠一一亀丐一": 7641,
      "一一丁丐一": 7642,
      "一一亐丈一一": 7643,
      "一一亀丄一一丁一": 7644,
      "一一一一亀丂丁一": 7645,
      "一一丄一一丩一一": 7646,
      "一一乐丂一乀丠一": 7647,
      "一一乀丐一亀一一": 7648,
      "一乒一一一一一一": 7649,
      "一丠一丠一一一一": 7650,
      "一一两一一一丁一": 7651,
      "一一丈上一一一一": 7652,
      "一一丁一一一一丂": 7653,
      "一一亀一一乂一一": 7654,
      "一乐一一亀一一一": 7655,
      "一一乀三一一": 7656,
      "一么丈一一": 7657,
      "一丠乐": 7658,
      "一一丅一么一一一": 7659,
      "一丐丅一": 7660,
      "一一亠一一且一一": 7661,
      "一一乐一亠丂一一": 7662,
      "一一両一丄一一一": 7663,
      "一一丠丒一丁一一": 7664,
      "一一丈一亀且一一": 7665,
      "一亠一一丈一一一": 7666,
      "一一一丄一一丂丁": 7667,
      "一一乂一一一丈一": 7668,
      "一一丐丈一丂丁一": 7669,
      "一一一一一丄亀一": 7670,
      "亀么": 7671,
      "一一一丂亐一一一": 7672,
      "一丄乀": 7673,
      "一一乀一一乀丈一": 7674,
      "一一亂一一丠一一": 7675,
      "一亀一一一一亁一": 7676,
      "一乀一一丐": 7677,
      "一一一丐丄一一一": 7678,
      "一一乀且一丂一一": 7679,
      "亐丐一一": 7680,
      "一一一一二一一一": 7681,
      "一一亀一且一一一": 7682,
      "乘丂一一": 7683,
      "一乀丌一一一一一": 7684,
      "一一乂丁一一丁一": 7685,
      "一一亀一亀上一一": 7686,
      "丂丠乄一一": 7687,
      "一一亐丂一一丈一": 7688,
      "一一一両一丨一一": 7689,
      "一一一一一且丈一": 7690,
      "一一丐一亀丁一一": 7691,
      "一一丅一一丐丈一": 7692,
      "一亀乀一一丠丐一": 7693,
      "一亀乐一一乀一一": 7694,
      "一一乄一一丈一一": 7695,
      "一亘": 7696,
      "亀一一一一丈一一": 7697,
      "一一乒丁一一": 7698,
      "一亀什": 7699,
      "一丠亐": 7700,
      "一丠一丁": 7701,
      "丄乀": 7702,
      "一一亀一一丠丁一": 7703,
      "一一一一什丄一一": 7704,
      "一一一上一亁一一": 7705,
      "一一乐一一一乀一": 7706,
      "一亠一一一一丁一": 7707,
      "一一乂丁一丂丁一": 7708,
      "一一一一亀三一一": 7709,
      "一一么丄一一丁一": 7710,
      "一亀乄一一丐丈一": 7711,
      "一一乐乀一丈一一": 7712,
      "一乀丈一丈一一一": 7713,
      "一一丄一一亀丈一": 7714,
      "一一丄一一么一一": 7715,
      "一一丂丁一上一一": 7716,
      "一一亄一么丄一一": 7717,
      "一一上丁一丈一一": 7718,
      "一亀丒一一丂一一": 7719,
      "一亀丠一丐一一一": 7720,
      "一一么丁一丠一一": 7721,
      "一一丨丄一亀一一": 7722,
      "一一亄丂一丄丂一": 7723,
      "一一乊一一丈丄一": 7724,
      "一一亐丂一乀一一": 7725,
      "一一一乐一乀一一": 7726,
      "一习一一": 7727,
      "一亀一一一亐丂一": 7728,
      "一丐一一乐丁一一": 7729,
      "亂一一一一一": 7730,
      "一乀丠一且一一一": 7731,
      "一丠丂一一丂一一": 7732,
      "一一丠丂一乀一一": 7733,
      "一一丁一一丠丄一": 7734,
      "一一且一亀丂一一": 7735,
      "一么丈一一一一一": 7736,
      "一一乊一五一一一": 7737,
      "一一乀一丐": 7738,
      "一一仒": 7739,
      "丂亁一": 7740,
      "一一丠一五一一一": 7741,
      "一亀亂一一一一一": 7742,
      "一一么一一丒一一": 7743,
      "一一亀一亐丂一一": 7744,
      "一一丘一一丂一一": 7745,
      "一亀丐一一一丈一": 7746,
      "一一丈丄乀三一一": 7747,
      "一一亨丂一": 7748,
      "一一一一一乊丁一": 7749,
      "一一一丐一一丄丂": 7750,
      "一一丂一一亐一一": 7751,
      "一一丈一亐上一一": 7752,
      "一一亁一一一丂丁": 7753,
      "一一三一一一丁一": 7754,
      "一什丈一一一一一": 7755,
      "一一丠一亀丠一一": 7756,
      "一一丈丄一一丄丂": 7757,
      "一一一一丁亠一一": 7758,
      "一一丢一": 7759,
      "一亀一亀": 7760,
      "一一乐一亀丒一一": 7761,
      "一一一丅亠一一一": 7762,
      "一一乀丁亐丂一一": 7763,
      "一一丄丁一乀一一": 7764,
      "一一一义一": 7765,
      "一一丠丈一丠一一": 7766,
      "一乀一一一一一丁": 7767,
      "一什丂": 7768,
      "一一亠丂乀丄一一": 7769,
      "一一亀丂一严一一": 7770,
      "一一丂丁亀丒一一": 7771,
      "一一五一一丄一一": 7772,
      "一一乀丁丠丐一一": 7773,
      "一一丢一丠一一一": 7774,
      "一一丠丄一三一一": 7775,
      "一丐一一丐丈一一": 7776,
      "一丠一一么丁一一": 7777,
      "一一一丩一丒丁一": 7778,
      "一丠丐一一一丄一": 7779,
      "一一一丩一一亁一": 7780,
      "一一一严一丠丐一": 7781,
      "一一且丐一丂一一": 7782,
      "乑一一一一": 7783,
      "一一一丄一乄一一": 7784,
      "一丈一一么丁一一": 7785,
      "一乀丂一一丐一一": 7786,
      "一一亀丒一丅一一": 7787,
      "一一丈一丠丈一一": 7788,
      "一一乀丁亀上一一": 7789,
      "一一一丰一": 7790,
      "一乐上一": 7791,
      "一一什丄一一一一": 7792,
      "一一一一一丵一一": 7793,
      "一一上丁一丠丐一": 7794,
      "一一丈一一亐一一": 7795,
      "一一丄丁一丠一一": 7796,
      "一一亀一一丈丁一": 7797,
      "一一丈一一一一丄": 7798,
      "一亠一一一一": 7799,
      "一一一丁一一三一": 7800,
      "亪一": 7801,
      "一一仅": 7802,
      "一丐一一一且一一": 7803,
      "一丂一一一一丄一": 7804,
      "亰一": 7805,
      "一一亐丂丠丑一一": 7806,
      "一丈一一一丨一一": 7807,
      "一丠丐一一丈丄一": 7808,
      "一一乐丈一乀一一": 7809,
      "一一亀丂一一乀一": 7810,
      "一一丠丁么一一一": 7811,
      "习丄一": 7812,
      "一一丂一一两一一": 7813,
      "一亀丐一乀一一一": 7814,
      "井一": 7815,
      "丠一丁一": 7816,
      "一乀丈一一一丄一": 7817,
      "一一丐一一乁一一": 7818,
      "一一上丈一丁一一": 7819,
      "一一一一一丠丕一": 7820,
      "一一丄一丠上一一": 7821,
      "一一亐一一一丈一": 7822,
      "一一一亐一两一一": 7823,
      "一亀丄丁一": 7824,
      "一丈一一一且一一": 7825,
      "一亠一一一丠一一": 7826,
      "一一丠丄一上一一": 7827,
      "一一亡一一丄一一": 7828,
      "一一丈丂一丄一一": 7829,
      "一不": 7830,
      "一乀一一乀丄一一": 7831,
      "一一一一丁丁": 7832,
      "一一一丐一么一一": 7833,
      "一一一七一乀一一": 7834,
      "事一一": 7835,
      "一一亅一一丐一一": 7836,
      "一乀丈一一一": 7837,
      "一乀丁一一一": 7838,
      "一一两一一丠丂一": 7839,
      "一一一乐一一丁一": 7840,
      "一一亅一一丐丈一": 7841,
      "一一丄丁一丐一一": 7842,
      "一一一丂一亀丈一": 7843,
      "一一一且一一丈一": 7844,
      "丄一丂丁一": 7845,
      "一一亠丐一丁一一": 7846,
      "一一丢丄一一一一": 7847,
      "丂乀一": 7848,
      "一丐一一乄一一一": 7849,
      "一一三丁": 7850,
      "一一丂一一丈丈一": 7851,
      "一一丒一一丐丁一": 7852,
      "一一一一一一亐": 7853,
      "一丁一一一一丁一": 7854,
      "一一丠丅一亀一一": 7855,
      "一亀一一一乂一一": 7856,
      "一一丂一一乔一一": 7857,
      "一亀乐一一丂丁一": 7858,
      "一丁一一一亀一一": 7859,
      "一丠丁一丈一一一": 7860,
      "丝一一": 7861,
      "一一一丈一亐一一": 7862,
      "一一亐一一两一一": 7863,
      "一一一一东一一一": 7864,
      "一一一丂乀上一一": 7865,
      "一一一且一争一一": 7866,
      "一一丠丂一一丁一": 7867,
      "一一一乒一丠一一": 7868,
      "一一亁一丨丁一一": 7869,
      "一一一上一一乀一": 7870,
      "一乀一一亠": 7871,
      "一一予一丠一一一": 7872,
      "一一丐丁亀乀一一": 7873,
      "予丐一": 7874,
      "一一一上一乐一一": 7875,
      "一一丁一一丢一一": 7876,
      "一一乐丂丠一一一": 7877,
      "一一亀三一一一一": 7878,
      "一一一亀一亀乀一": 7879,
      "一一一一一丐丈丄": 7880,
      "一一亃一一一一一": 7881,
      "一一一丆一丄一一": 7882,
      "一亀一亀一一一一": 7883,
      "一一一丁么一一一": 7884,
      "一一丐一一乐丂一": 7885,
      "一一予一么一一一": 7886,
      "一丐丂一亀一一一": 7887,
      "丠丐一一一": 7888,
      "亀乒一一": 7889,
      "一一丨一且一一一": 7890,
      "丙一": 7891,
      "一一丄一丐": 7892,
      "一乀丄一一丐一一": 7893,
      "一丠丄一一丂一一": 7894,
      "一一丨丠一丄一一": 7895,
      "一一且丂一丁一一": 7896,
      "一一亠丈一丄一一": 7897,
      "一一一丁亠": 7898,
      "一一亂一一丁一一": 7899,
      "一一丈丂一丠一一": 7900,
      "一一一乂一亄一一": 7901,
      "丱一": 7902,
      "一一丄一乀丑一一": 7903,
      "一一一丁一丂丂一": 7904,
      "一乀丂一一丁一一": 7905,
      "一一乄丂丠一一一": 7906,
      "一亀一一一丐丂一": 7907,
      "一一亀丈一丑一一": 7908,
      "一一亄一么一一一": 7909,
      "一一乄一丠丄一一": 7910,
      "一一乀一么丁一一": 7911,
      "一一一世一": 7912,
      "一一上丅一一一一": 7913,
      "一一乄一": 7914,
      "一乔丁一一": 7915,
      "一一一予丂一一一": 7916,
      "一一丐一一丠丁一": 7917,
      "一一丈一一严一一": 7918,
      "一一乂丁一一": 7919,
      "一一丅丄亀一一一": 7920,
      "乀丈": 7921,
      "一一一一丐一丄一": 7922,
      "一一丄一乀丐一一": 7923,
      "一乀丬": 7924,
      "一一习丂一一一一": 7925,
      "一一亀丌": 7926,
      "一一一丂一一丈丄": 7927,
      "一一亂一一丐一一": 7928,
      "一一丠丁一一丅一": 7929,
      "一一一丠一两一一": 7930,
      "一一什一一丈一一": 7931,
      "一一予丂乀一一一": 7932,
      "一一丐丆": 7933,
      "一一乀丁丁丠一一": 7934,
      "一一乘丁一一一一": 7935,
      "一一一丑一乀一一": 7936,
      "一一丂丁亐一一一": 7937,
      "一一亠亀一丐一一": 7938,
      "一一一三一亀一一": 7939,
      "一一丨一一亀乀一": 7940,
      "一一一丅乀上一一": 7941,
      "一一七一一": 7942,
      "一丠丕一一丐丈一": 7943,
      "一一丈丄一乀丠一": 7944,
      "一一亠一么丁一一": 7945,
      "一一一丅一両一一": 7946,
      "一一丂一丁一一一": 7947,
      "一一一丅乀丁一一": 7948,
      "一一乂丄一一一一": 7949,
      "一一一三一么一一": 7950,
      "一一什上一一一一": 7951,
      "丸一一一一": 7952,
      "一一亀一一个一一": 7953,
      "一一丈丅一丈丄一": 7954,
      "一一亀一一一丄丂": 7955,
      "一一丈一一乀丅一": 7956,
      "一一丨丄一丂一一": 7957,
      "一一一一一七": 7958,
      "一一一一一一交一": 7959,
      "一一丁一一丠丅一": 7960,
      "一一乀一丈丁一一": 7961,
      "一一亅丂一一一一": 7962,
      "一一一丂一丐丐一": 7963,
      "一一丈丁乀丂一一": 7964,
      "丂丠丂一": 7965,
      "一一乀一一丆一一": 7966,
      "一一乒丁一乒丁一": 7967,
      "一一一丈一丄丁一": 7968,
      "一一丂丁一丄丂一": 7969,
      "一一一两一乂一一": 7970,
      "一丠一一丠丄一一": 7971,
      "一一一丐亀丄一一": 7972,
      "一丄丠一一一一一": 7973,
      "一一丂一丈丁一一": 7974,
      "一乀丠一一一丈一": 7975,
      "一一亀业": 7976,
      "一一丂一一乀丈一": 7977,
      "一一一丄一丠丠一": 7978,
      "一一両一乐一一一": 7979,
      "一一丄丂丈丄一一": 7980,
      "一一乀乊": 7981,
      "一一亂一一丈一一": 7982,
      "一一一丕一丢一一": 7983,
      "一一丁一亀": 7984,
      "亥一": 7985,
      "一亀丄一一丈一一": 7986,
      "一一丂丁乀丠一一": 7987,
      "一一亨一乀一一一": 7988,
      "一一丁丄": 7989,
      "一一亠丄一一丂一": 7990,
      "一一乀丑一丈一一": 7991,
      "一一一丑一丈丄一": 7992,
      "一一一丢一一丈一": 7993,
      "一一丩一一亁一一": 7994,
      "予上一一": 7995,
      "一一丒丁亀": 7996,
      "一丨丅一": 7997,
      "一一一乐一丈丂一": 7998,
      "一丨丂": 7999,
      "一一两一一三一一": 8000,
      "一一一一一乢一一": 8001,
      "一亀丐一亀乀一一": 8002,
      "丠乂一一": 8003,
      "一一丁一一丨丁一": 8004,
      "一一一丒一两一一": 8005,
      "一一亀乁": 8006,
      "一一丂一一乀丂一": 8007,
      "一一丁一一丠丁一": 8008,
      "一一一上亀丂一一": 8009,
      "一一付": 8010,
      "一一丈一一亨一一": 8011,
      "一一乀丠一丁一一": 8012,
      "一一丐丌": 8013,
      "一一且一一亁一一": 8014,
      "一一一丂亀丁一一": 8015,
      "一一乄丂一丐一一": 8016,
      "一一丄一一一一丄": 8017,
      "一一一丅一乀丁一": 8018,
      "一一一丁乀丒一一": 8019,
      "一一乁一一丐一一": 8020,
      "一一丒丂": 8021,
      "一一一丁一一丁丁": 8022,
      "一一丈一什一一一": 8023,
      "一亀丄一一亀一一": 8024,
      "一一丠丕一丠丐一": 8025,
      "一一一丠一丄丂一": 8026,
      "一一丈一一亄一一": 8027,
      "一一丈一丂一一一": 8028,
      "一一亁一一丂丁一": 8029,
      "一一丂一丠上一一": 8030,
      "一丄一一两一一一": 8031,
      "一一予丄一丠一一": 8032,
      "一一丐両": 8033,
      "一一丄丅": 8034,
      "一一丁一丐丂一一": 8035,
      "中一": 8036,
      "一一乒丁一一亁一": 8037,
      "一丠一一乀丠一一": 8038,
      "一一乄丈一一一一": 8039,
      "一一丕一丠一一一": 8040,
      "一乀丂一乀一一一": 8041,
      "交一一一一": 8042,
      "一丠一一亀丄一一": 8043,
      "一一乪一一一一一": 8044,
      "一一亲": 8045,
      "一一丢丁一丈一一": 8046,
      "丈丑一": 8047,
      "一一丢一亀一一一": 8048,
      "一丠丄一一亀一一": 8049,
      "一一乀丣": 8050,
      "一一丂一丐丅一一": 8051,
      "丠丅一": 8052,
      "一一丂一一乐丂一": 8053,
      "一一一丁丂": 8054,
      "一一一乀一一一丂": 8055,
      "一一亠乀": 8056,
      "一两丁一一一一一": 8057,
      "一一丒丁一乀丠一": 8058,
      "什一一一一": 8059,
      "一一一丆一丠一一": 8060,
      "一一一一一丐一丁": 8061,
      "一一上丁一一": 8062,
      "丠丐一一一一一一": 8063,
      "一一丑丂一一一一": 8064,
      "一一一一亁": 8065,
      "一一丅一丨丁一一": 8066,
      "一一一一一亀丨一": 8067,
      "一一一严一丂一一": 8068,
      "一乀一一丠丐一一": 8069,
      "一一习一一丄一一": 8070,
      "一一丰丁一一一一": 8071,
      "亚一一": 8072,
      "一一丠丐一予一一": 8073,
      "一一丐上一乀一一": 8074,
      "一一亀乀一丨一一": 8075,
      "一一一三一一": 8076,
      "一丠一一亄一一一": 8077,
      "一一丂一亠丈一一": 8078,
      "一一一亠一乀丁一": 8079,
      "一丈一丂一一一一": 8080,
      "一一丅一丄一一一": 8081,
      "一一习丅一一一一": 8082,
      "予一一一一一": 8083,
      "一丈丠一一": 8084,
      "一一一一一丙一一": 8085,
      "一亀一一乀丄一一": 8086,
      "一一亄丈一一一一": 8087,
      "一乀个一乀个一一": 8088,
      "一一丠丐一丄丂一": 8089,
      "丄丈一一": 8090,
      "一一乂一亠一一一": 8091,
      "一一亀丂亠一一一": 8092,
      "一亀乐一一一": 8093,
      "一亨丂一一": 8094,
      "一一丨一乐丁一一": 8095,
      "一丐丈一一一丂一": 8096,
      "一什丁一一": 8097,
      "一一一丑乀丄一一": 8098,
      "一一亅一一丄一一": 8099,
      "一乀丠一乀上一一": 8100,
      "一一乀一亀乔一一": 8101,
      "一一丐一一亀丄一": 8102,
      "一一一乀一亀亀一": 8103,
      "一一丢一一丄一一": 8104,
      "一一亀一一一一丈": 8105,
      "一一亠一丠丄一一": 8106,
      "一一一丂一一丅一": 8107,
      "一一一一一一丐丂": 8108,
      "一一亀丈丠丂一一": 8109,
      "一一仔一一一一一": 8110,
      "一一丈一一么丁一": 8111,
      "一一乔一一丄一一": 8112,
      "一一丠且一争一一": 8113,
      "一乀一一一个一一": 8114,
      "一一一亀一一丄丂": 8115,
      "一一丐丄一丈一一": 8116,
      "一丄一一一一一": 8117,
      "一一且一一亠一一": 8118,
      "一一且丂一乀丠一": 8119,
      "亀丂一一一": 8120,
      "一一丐丒一": 8121,
      "一丠乄一": 8122,
      "一一一丕一丈一一": 8123,
      "一一一互一": 8124,
      "丂丐": 8125,
      "一一一乄一丑一一": 8126,
      "一一丠丐一一丈一": 8127,
      "一丠丄一乀一一一": 8128,
      "一一丈丂一亀一一": 8129,
      "乒丄一": 8130,
      "一丐一一一亀": 8131,
      "一一丄丂一一丠一": 8132,
      "一一一丁一丈丈一": 8133,
      "一一丐丄一丄一一": 8134,
      "一亀一一一丐丁一": 8135,
      "一丠一丐一一一一": 8136,
      "一一丐一亠丈一一": 8137,
      "一一両一一一丐一": 8138,
      "一一丠丐一丅一一": 8139,
      "一一丑一一一丂一": 8140,
      "一一一且亀丂一一": 8141,
      "一一丁一一丒一一": 8142,
      "一一一亐一丄一一": 8143,
      "一一丂丁乀丈一一": 8144,
      "一一一一乂一一一": 8145,
      "一一丄一一乂一一": 8146,
      "一一亄一一丐丈一": 8147,
      "一亀丈一一一丁一": 8148,
      "一一丐丄一乀一一": 8149,
      "一一一仂": 8150,
      "一一乀且一一": 8151,
      "一亠丈一": 8152,
      "一一亀一一丐丁一": 8153,
      "一丠丨一一一一一": 8154,
      "一丠一丈": 8155,
      "一一丨丁乐一一一": 8156,
      "一一交一一丐一一": 8157,
      "一一乀丁一一亁一": 8158,
      "上丁": 8159,
      "一一一一一专一一": 8160,
      "一一乐丂一一丁一": 8161,
      "一一乄一丈一一一": 8162,
      "一一丠丁一一丂一": 8163,
      "一一丰丂": 8164,
      "一一丠丁一么一一": 8165,
      "一一一乂一且一一": 8166,
      "一两丅": 8167,
      "一一丠一丠丈一一": 8168,
      "一一亀一一乑一一": 8169,
      "一一一一一乐丅一": 8170,
      "一一丅一丠丐一一": 8171,
      "一一交一一丠一一": 8172,
      "一亀一丄一": 8173,
      "一一丒一乀一一一": 8174,
      "一一乀丅一乀一一": 8175,
      "一二": 8176,
      "一丐一一一丅一一": 8177,
      "一一乬": 8178,
      "一一一仔": 8179,
      "一一乔丁": 8180,
      "一一一一一五丂一": 8181,
      "一一乀丠一一丠一": 8182,
      "一一丐丄一丐一一": 8183,
      "一一亀一一丠丄一": 8184,
      "世一一一一": 8185,
      "一一丐丒一一一一": 8186,
      "一一亀一丂": 8187,
      "一乀上一一丠一一": 8188,
      "一一丈丂一乀一一": 8189,
      "一乊丁": 8190,
      "一一丠一一乀丅一": 8191,
      "一一丂一一両一一": 8192,
      "一一五一一一丂一": 8193,
      "一丠丆": 8194,
      "一亀乂一一丈丄一": 8195,
      "亀丈一一一一一一": 8196,
      "一一乀一亀丁一一": 8197,
      "一一丐丂一一丄一": 8198,
      "一丂丁一丠一一一": 8199,
      "亀乊": 8200,
      "一一一丄一丐丁一": 8201,
      "一丈丁一一丁一一": 8202,
      "一一亁一么一一一": 8203,
      "一亀丄一一且一一": 8204,
      "一乀丨一一丠一一": 8205,
      "一一丄丂一丄丄一": 8206,
      "一一一一一丐三一": 8207,
      "一丠一丐": 8208,
      "一亐一一一乀一一": 8209,
      "一丂丁一乀丠一一": 8210,
      "一一且上一一一一": 8211,
      "一亁一一一丐一一": 8212,
      "一一丄丂一丈丄一": 8213,
      "一一亀一亠丂一一": 8214,
      "一一丂一一么丁一": 8215,
      "一一么一丈一一一": 8216,
      "一丈丄一丄一一一": 8217,
      "丁丁一一": 8218,
      "丬丁一一": 8219,
      "一一一一一一乀丅": 8220,
      "一一一丈一乀乀一": 8221,
      "一一一丠丄一一一": 8222,
      "一一乄丂一丐丈一": 8223,
      "一亀乢": 8224,
      "一一一一一乀一丁": 8225,
      "一一乂一一丈丄一": 8226,
      "一亀一一乀上一一": 8227,
      "亀丄一": 8228,
      "一一一一一一乐": 8229,
      "一一一丑一丄一一": 8230,
      "一一一丩一乒一一": 8231,
      "一丄一一一丂丁一": 8232,
      "一一丠一什一一一": 8233,
      "一一么丁一乀一一": 8234,
      "丐丄": 8235,
      "一一丈一亀丢一一": 8236,
      "一一丄一亀上一一": 8237,
      "一一丄一一丄丄一": 8238,
      "一一一亀一且一一": 8239,
      "一一丠丅一一丄一": 8240,
      "一丠乂": 8241,
      "一一两一一一丐一": 8242,
      "一一乊一亀一一一": 8243,
      "一一亀丘一": 8244,
      "一一亄丄一一一一": 8245,
      "一一且丂一丐丈一": 8246,
      "一一丨丈": 8247,
      "一一一丐一乐一一": 8248,
      "一一丒一一一丂一": 8249,
      "一一亀丂亀丄一一": 8250,
      "一亀乄一丠一一一": 8251,
      "一一丈丂一丂一一": 8252,
      "丁丂一一": 8253,
      "丁丄一一": 8254,
      "一一丁一一个一一": 8255,
      "一一乂一丐丂一一": 8256,
      "乄丈一一": 8257,
      "一一丂一乀丅一一": 8258,
      "一么丈一": 8259,
      "一一京一一一一一": 8260,
      "一一丄一习一一一": 8261,
      "一一一丩一丄一一": 8262,
      "一亀乄一一丐一一": 8263,
      "一一乀一一丩一一": 8264,
      "一一丩一乀一一一": 8265,
      "一乀丐一亀一一一": 8266,
      "一一乐丂一丂丁一": 8267,
      "一一一乀丄一一一": 8268,
      "一一乐丈一丄一一": 8269,
      "一一一丈一么一一": 8270,
      "一一一一一乚一一": 8271,
      "一一丒一亀乀一一": 8272,
      "一一亀丈一亄一一": 8273,
      "一一么丁丠一一一": 8274,
      "一一丢丁一丈丄一": 8275,
      "一一丈一丈丄一一": 8276,
      "一一一丁一丠丁一": 8277,
      "一乀丂一一乀一一": 8278,
      "一丠丐一丠丅一一": 8279,
      "一且一一一一": 8280,
      "一一丠一亀丢一一": 8281,
      "一一丈三一一一一": 8282,
      "一一一一乀亁一一": 8283,
      "一一一亨一一丁一": 8284,
      "一一上丁丐一一一": 8285,
      "一一丘一亀一一一": 8286,
      "一一一丈一严一一": 8287,
      "亀一一一亀一一一": 8288,
      "一一一一一一业一": 8289,
      "一一乐上一一": 8290,
      "亀丠一一一一一一": 8291,
      "一一丁一丠丂一一": 8292,
      "亀一一一一丠一一": 8293,
      "一一丄一一亠丄一": 8294,
      "一丢丁一一": 8295,
      "一一丐一亀丠一一": 8296,
      "一一予一丐丁一一": 8297,
      "一一一一一丈一丂": 8298,
      "一一一一一乪一一": 8299,
      "一一乀一一一丁丁": 8300,
      "一一両丂一一一一": 8301,
      "一一一个丁一一一": 8302,
      "一一一丢亀丈一一": 8303,
      "一丈一丁一一一一": 8304,
      "丁乀一": 8305,
      "一一什丢": 8306,
      "一一亡一一亁一一": 8307,
      "一一亀丐一亄一一": 8308,
      "一一乐丈一丂丁一": 8309,
      "一一丠一一亂一一": 8310,
      "一一丠一一乁一一": 8311,
      "一一乐丈一一丁一": 8312,
      "一一乀丄丐丁一一": 8313,
      "一一亀亄一一一一": 8314,
      "一亀一一一乐丁一": 8315,
      "一一丂一丨丂一一": 8316,
      "一一丠丐乀丠一一": 8317,
      "一一亠丄一亀乀一": 8318,
      "一一一丐丂一丐一": 8319,
      "丂亀一": 8320,
      "一一乒一丠一一一": 8321,
      "一亀一一一三一一": 8322,
      "一一亁一一乀丠一": 8323,
      "一一习丐一一一一": 8324,
      "一一一一丅": 8325,
      "一一丠丢一": 8326,
      "一一丈一乐丄一一": 8327,
      "一一一专一一一一": 8328,
      "一一一亄一一丁一": 8329,
      "一一上丁一丈丄一": 8330,
      "丁丠丐一": 8331,
      "一一丐丈亀丄一一": 8332,
      "一一丁一丐丅一一": 8333,
      "一一一一丄丐一一": 8334,
      "一一亘一一一一一": 8335,
      "一一且一两一一一": 8336,
      "一一亀丁一丐一一": 8337,
      "一一丐丈一一丐一": 8338,
      "习一一一一一": 8339,
      "一一一争一乀丠一": 8340,
      "一一一丐丂亀一一": 8341,
      "一一一一丂一一丂": 8342,
      "一一乀丁一丨一一": 8343,
      "一丠丐一交一一一": 8344,
      "一一乄一丄一一一": 8345,
      "一乀丢一一丈丄一": 8346,
      "一一丈一丄丁一一": 8347,
      "一一么一一一丂一": 8348,
      "一一丠丁丈一一一": 8349,
      "一丈一一一丐丈一": 8350,
      "一丠丐一予一一一": 8351,
      "一一一下一": 8352,
      "一一丁一予丂一一": 8353,
      "一一一么一亀一一": 8354,
      "一一丒一亀丄一一": 8355,
      "一一丄一一亀丄一": 8356,
      "一一上一一乐一一": 8357,
      "一一亨一一亁一一": 8358,
      "一一亀乒一": 8359,
      "一一丄一一亐丂一": 8360,
      "一一丒丈一一一一": 8361,
      "一丄丐一": 8362,
      "一乀三一一丠一一": 8363,
      "亐丠一": 8364,
      "一一两丄": 8365,
      "一一一丠丠": 8366,
      "一一丨一一乀丁一": 8367,
      "一亀么一": 8368,
      "一一乩": 8369,
      "一一乀上一一丁一": 8370,
      "丫一": 8371,
      "一一一一一並一一": 8372,
      "一一丠丌": 8373,
      "一一亀一一乀丄一": 8374,
      "一一乁一一丈一一": 8375,
      "一一一一一一丠丠": 8376,
      "一一乐上一乀丠一": 8377,
      "丅丄一": 8378,
      "一一丁一一亠丂一": 8379,
      "一一乀丄亐一一一": 8380,
      "一一丨丁一亀一一": 8381,
      "一一乐丄一丂一一": 8382,
      "一丠一丁一": 8383,
      "一一丐丁丈一一一": 8384,
      "一丐一丁": 8385,
      "一一一乐一一": 8386,
      "一丠丄一一亄一一": 8387,
      "一一丢一一一丄一": 8388,
      "一一丐一习一一一": 8389,
      "一一一一一亀乄一": 8390,
      "一一一丠丁乐一一": 8391,
      "乄一一一一一": 8392,
      "一一一一一一久一": 8393,
      "両丂一一": 8394,
      "一一乂丁亐丈一一": 8395,
      "一一一一一一义一": 8396,
      "一一丨一一丈丄一": 8397,
      "一亠一一丄一一一": 8398,
      "一丠丁一一丐一一": 8399,
      "一一亀乄一丠一一": 8400,
      "一一丂丠一": 8401,
      "一丠丂一亀一一一": 8402,
      "一乀一一一么丁一": 8403,
      "一一乀一乀丐一一": 8404,
      "一亀丂一一一": 8405,
      "丂一丐丈一": 8406,
      "一一一且一丂丁一": 8407,
      "一丄一一一一丐一": 8408,
      "一一一仠一一一一": 8409,
      "一一丐一一丈丁一": 8410,
      "一一亁一一一乀一": 8411,
      "一丐一一乔一一一": 8412,
      "一一什一亀一一一": 8413,
      "一一乀一一亀丈一": 8414,
      "一一丠严一": 8415,
      "一一丈丁一丠丐一": 8416,
      "一丈一一一亀": 8417,
      "一一亀丂一丠丐一": 8418,
      "一一丰一一丂一一": 8419,
      "一一乀不一一一一": 8420,
      "一一丠一乀丑一一": 8421,
      "一一一亀一一一丂": 8422,
      "一丠一一丈丁一一": 8423,
      "一丂丁一丐一一一": 8424,
      "一亀乂丁一一一一": 8425,
      "一一亀丠一亀一一": 8426,
      "一一丂一丐": 8427,
      "一一一丰一丈一一": 8428,
      "一一一丐一丩一一": 8429,
      "一一一丆乀一一一": 8430,
      "一一一予一丢一一": 8431,
      "乀乀一一一": 8432,
      "一一亄丂一一丂一": 8433,
      "一一一亄一亀一一": 8434,
      "一一一乒一亀一一": 8435,
      "一一三一一予一一": 8436,
      "一乀一一予一一一": 8437,
      "一亀乒一一丂丁一": 8438,
      "上丈一": 8439,
      "一一一丁一亐一一": 8440,
      "一乘一一一一一一": 8441,
      "一一乀乂一": 8442,
      "一亀乀一一亁一一": 8443,
      "一一乔丈一一一一": 8444,
      "一一乀一一个一一": 8445,
      "亄乀一": 8446,
      "一一一一买": 8447,
      "一一一丄一七一一": 8448,
      "一一两丂乀丁一一": 8449,
      "一丸一一一一一一": 8450,
      "一一亀一一丠丠一": 8451,
      "一一亄一一亀丐一": 8452,
      "一一乂丂": 8453,
      "一一丠一一交一一": 8454,
      "一一一丁什一一一": 8455,
      "世丁一": 8456,
      "一丐一一一丄丂一": 8457,
      "一一亠一一一丑一": 8458,
      "一一亀丢一丐一一": 8459,
      "一一一乀一丐丂一": 8460,
      "一一一乀乀一": 8461,
      "一一一一一丩": 8462,
      "一一乀丂亠丄一一": 8463,
      "一一一乔一丈一一": 8464,
      "丂丄": 8465,
      "一乀丨一一丠丐一": 8466,
      "一一上丁亀一一一": 8467,
      "一一一一一仄一一": 8468,
      "一一丢一一乀一一": 8469,
      "一一丠丂一一丐一": 8470,
      "一一乀一一乁一一": 8471,
      "一一丁一一么一一": 8472,
      "一一一乒一丐一一": 8473,
      "一亁一一丠一一一": 8474,
      "一一仐丂一一一一": 8475,
      "一一丁一乐丄一一": 8476,
      "一一乀三一一丄一": 8477,
      "一一亀丐一一丐一": 8478,
      "为一一": 8479,
      "一一亀丒一亀一一": 8480,
      "一一一丒一予一一": 8481,
      "一一丨丄一亁一一": 8482,
      "一一丁一亀且一一": 8483,
      "一一一乄一丢一一": 8484,
      "一一乀丁一一丨一": 8485,
      "一一一一一丈一丁": 8486,
      "一一丐且一一一一": 8487,
      "一一一一一丨丐一": 8488,
      "一一一丄丁丠一一": 8489,
      "一一丐丆一一一一": 8490,
      "一两丄一": 8491,
      "一一丠丈一丈一一": 8492,
      "一一亀上一一丈一": 8493,
      "一一一一丐一丂一": 8494,
      "一丈一一丠丐一一": 8495,
      "一一一丈一亀丈一": 8496,
      "一一一亠一丄一一": 8497,
      "一一个丄一一一一": 8498,
      "一一乨丁一一一一": 8499,
      "一一三丄一一一一": 8500,
      "一亀上一一丈一一": 8501,
      "一一予丐一一一一": 8502,
      "丂一丁": 8503,
      "一一一丕一丠丐一": 8504,
      "一一一一一乖一一": 8505,
      "一一一七一丠一一": 8506,
      "一亀丠一一丈一一": 8507,
      "一一一事": 8508,
      "一亀乀一一一丐一": 8509,
      "一一么一一乀丄一": 8510,
      "一一丠一亨一一一": 8511,
      "一一什丁": 8512,
      "一丨一一一丄一一": 8513,
      "一亀一一一亄一一": 8514,
      "一丐丂一一丠一一": 8515,
      "一一一一一一亠丂": 8516,
      "丗一一": 8517,
      "一亀一一丈丄一一": 8518,
      "一一乀丈一丒一一": 8519,
      "一一予丄一丠丐一": 8520,
      "一一乀两一丂一一": 8521,
      "丂一亁一一": 8522,
      "一一亀一一七一一": 8523,
      "一一交丂一一": 8524,
      "一一丠丂予一一一": 8525,
      "一一丂一一乀上一": 8526,
      "一一一且一一丠一": 8527,
      "一一一丌一丈一一": 8528,
      "一一丄丂亀丐一一": 8529,
      "一个丁": 8530,
      "亀一一一丠一一一": 8531,
      "一一丐丨一一一一": 8532,
      "一一两丐一一一一": 8533,
      "一一乊一一丂一一": 8534,
      "一一乐一丄丂一一": 8535,
      "一一乁一丈一一一": 8536,
      "一乄丁一一一一一": 8537,
      "一一亀乀一亀亀一": 8538,
      "亀一一一一丄一一": 8539,
      "一一一一丢一一一": 8540,
      "一一亐一丈丁一一": 8541,
      "一一亨丐一一一一": 8542,
      "一一亀一丠丈一一": 8543,
      "一一丁一丁一一一": 8544,
      "一一一丨一一亀一": 8545,
      "一一亀丂乐一一一": 8546,
      "一一什丁一": 8547,
      "一一一一一乀両一": 8548,
      "一乀丄一乀一一一": 8549,
      "一一一一一一乐丁": 8550,
      "一一两丂乀": 8551,
      "一一丨丄一丠丐一": 8552,
      "一一乀丁亐丈一一": 8553,
      "一亀乐一一乀丠一": 8554,
      "一乀丨一一丁一一": 8555,
      "一一乀一一丠丁一": 8556,
      "一一两一丠丁一一": 8557,
      "丂亀丈一": 8558,
      "一一丈一乀丐一一": 8559,
      "一一乐一一丐丈一": 8560,
      "一一亁一丨一一一": 8561,
      "一一一一乘丁一一": 8562,
      "一一乀一乄一一一": 8563,
      "一两丁": 8564,
      "一丨一一一丐一一": 8565,
      "一一一一一丘丁一": 8566,
      "一乪": 8567,
      "一丄一一亀丂一一": 8568,
      "一一丠丐一丨一一": 8569,
      "一一一么丁一丈一": 8570,
      "一一云一一丄一一": 8571,
      "一一丄一丘一一一": 8572,
      "一一一丁一一丑一": 8573,
      "一一一一丂一亀一": 8574,
      "一亀一一予丂一一": 8575,
      "一丂丁一一丐一一": 8576,
      "付一一一": 8577,
      "一一丄一一亀丐一": 8578,
      "一一乐両一一一一": 8579,
      "一一丄一乔一一一": 8580,
      "三丁": 8581,
      "一一丄一么丅一一": 8582,
      "一一乀丂一亐一一": 8583,
      "一一丠一一亀丄一": 8584,
      "一一亀一么丄一一": 8585,
      "一一一丁一丠丄一": 8586,
      "一一么丠一一一一": 8587,
      "一一亄一一一丐一": 8588,
      "什一一一一一一一": 8589,
      "一一严一么一一一": 8590,
      "乁丠一": 8591,
      "一一一三丐一一一": 8592,
      "一一一丁一乐丁一": 8593,
      "一一丠一丂": 8594,
      "一乀亐": 8595,
      "一一亐一丠丅一一": 8596,
      "一一両丁": 8597,
      "一一乁一一丄一一": 8598,
      "乆一": 8599,
      "一一丈一一一丂丁": 8600,
      "一一丈七一一一一": 8601,
      "一一丁丈一": 8602,
      "一一一丁乀丅一一": 8603,
      "一亀丂一一一丈一": 8604,
      "一一丠丈亀一一一": 8605,
      "一一一丐一一丐丈": 8606,
      "一乀一一一乀丠一": 8607,
      "一亀乐一一丂一一": 8608,
      "一一亀丄一丅一一": 8609,
      "一一亴一一一一一": 8610,
      "一一丈丄亀乀一一": 8611,
      "一丠丄一一一丂一": 8612,
      "一亀丈一一丄一一": 8613,
      "一一丠両一丈一一": 8614,
      "一一丁一亀丐一一": 8615,
      "一一乀一乐丁一一": 8616,
      "一乀一一一丈丁一": 8617,
      "一一上一乄一一一": 8618,
      "一一丠乄一": 8619,
      "一一亠丐一丄丂一": 8620,
      "一一一一乌一一一": 8621,
      "一一一一丂乀": 8622,
      "一一亀丈亐一一一": 8623,
      "一一亐丐一丄一一": 8624,
      "一一丐一丐丄一一": 8625,
      "一乀乁一一一一一": 8626,
      "乀一丐一一": 8627,
      "一一么丈一丂一一": 8628,
      "一一丂丁丄丂一一": 8629,
      "一一一么一一丁一": 8630,
      "一一丠丁乀上一一": 8631,
      "一一一一一乀丨一": 8632,
      "一一丄丂一丂丁一": 8633,
      "一一一両一亀一一": 8634,
      "一一亀丈丠丁一一": 8635,
      "一一丐丈一一亁一": 8636,
      "交丈一一": 8637,
      "一丐丈一亐丂一一": 8638,
      "一一亀丨一丄一一": 8639,
      "一一一丄一一且一": 8640,
      "一丠上一": 8641,
      "一一乐丠": 8642,
      "一丐丈一亀乀一一": 8643,
      "一一交丂一交丂一": 8644,
      "一一一一一一习": 8645,
      "一一亐丈一一丂一": 8646,
      "一一亄一丠丁一一": 8647,
      "一一个一一丂一一": 8648,
      "一一么丄亀丂一一": 8649,
      "什丈一": 8650,
      "一一丈丄一一亀一": 8651,
      "一一亄丂一丄一一": 8652,
      "一一一乄一两一一": 8653,
      "一一一丢一乐一一": 8654,
      "一一丐上一丐丈一": 8655,
      "一一丄一乀且一一": 8656,
      "一丠丐一一丠丐一": 8657,
      "一一乂一亀丂一一": 8658,
      "一一丂丁一亁一一": 8659,
      "一乀一一丠丅一一": 8660,
      "一一丈丑一一一一": 8661,
      "一一且一一丄丂一": 8662,
      "一一丕丂一一一一": 8663,
      "一一仨": 8664,
      "一一亀一一丄丄一": 8665,
      "一一丁一一交一一": 8666,
      "一一丠丌一一一一": 8667,
      "一丂丈一一一一一": 8668,
      "一一亄一一丅一一": 8669,
      "一亀丂一一丈丄一": 8670,
      "亐丆一一": 8671,
      "一一丈一乀且一一": 8672,
      "一一一亀丈一一一": 8673,
      "一一一一习丂一一": 8674,
      "一一丐丄一亀一一": 8675,
      "一一乀乂一丐一一": 8676,
      "一乐一一丐一一一": 8677,
      "一一丁一亠丂一一": 8678,
      "一一乀亄": 8679,
      "一一両一一丄丂一": 8680,
      "一一乊一一": 8681,
      "一一一丄一亨一一": 8682,
      "一一丠一一一両一": 8683,
      "一一乀丄么一一一": 8684,
      "一亀乔一亀乀一一": 8685,
      "一一一个一乄一一": 8686,
      "一一一一亀一乀一": 8687,
      "一丐一丐一一一一": 8688,
      "一一丂一丠丈一一": 8689,
      "一一一乐一一乀一": 8690,
      "一一一一乁": 8691,
      "一一亨丂": 8692,
      "一乀一一一亨一一": 8693,
      "一一一丨丁乀丠一": 8694,
      "一一丠两一一一一": 8695,
      "一一丌一一丁一一": 8696,
      "一乀一丄一": 8697,
      "一乀丠一一乀丠一": 8698,
      "一亀丂一一乄一一": 8699,
      "一一一予一丈一一": 8700,
      "一一一七丠一一一": 8701,
      "一亠一一一亀一一": 8702,
      "一一丐上一乀丠一": 8703,
      "一一乀一丈丄一一": 8704,
      "一一乀一亠丈一一": 8705,
      "一一亀乀一一丄一": 8706,
      "一一丨一一乐一一": 8707,
      "一一乒一一丐一一": 8708,
      "一一一一一丠一丁": 8709,
      "一一一一一丑": 8710,
      "一一丠丁乐丂一一": 8711,
      "一一亠丅一一一一": 8712,
      "一一亀乀一一丈一": 8713,
      "下一一一一一": 8714,
      "一一乄七": 8715,
      "一一且一一丨一一": 8716,
      "一乐一一一一": 8717,
      "一乘一一一": 8718,
      "一一一丈一両一一": 8719,
      "一一丄丂乀丠一一": 8720,
      "一一丄丂亀且一一": 8721,
      "一一丐丂一一丠一": 8722,
      "且丁": 8723,
      "一一一丈一丢一一": 8724,
      "一一一亀一丠丐一": 8725,
      "一一一乊一乀丠一": 8726,
      "丈丂": 8727,
      "一一一一一一东一": 8728,
      "一一亠一丐丈一一": 8729,
      "一一丅一一一丐一": 8730,
      "一丈一一两一一一": 8731,
      "一一一亠一丈丄一": 8732,
      "一亀丌": 8733,
      "一一丠一交一一一": 8734,
      "一一一両一一亁一": 8735,
      "一一亀丄乀三一一": 8736,
      "一丠丘": 8737,
      "一一一一丑一一一": 8738,
      "一一一一一亰": 8739,
      "一一什丈一": 8740,
      "乑一一一": 8741,
      "一一上一乀丁一一": 8742,
      "一一丄一丂一一一": 8743,
      "一一亁一丠丄一一": 8744,
      "一一一丠一丑一一": 8745,
      "一一一一丐丢一一": 8746,
      "一一丠丄一一丠一": 8747,
      "一一乁一亀一一一": 8748,
      "一一一一一予丁一": 8749,
      "一一丘一一丁一一": 8750,
      "一一两丂一亀乀一": 8751,
      "丠丂": 8752,
      "一一亀一一乊一一": 8753,
      "一一亀亄一丠一一": 8754,
      "一一丄一一丐丁一": 8755,
      "一一一丑一丢一一": 8756,
      "一一丐三一乀一一": 8757,
      "両丁一": 8758,
      "一一丠一一亠丄一": 8759,
      "一一乀下一一一一": 8760,
      "一一一乄一三一一": 8761,
      "一亀乄一丠丐一一": 8762,
      "一两丁一": 8763,
      "一一亐丂一亀一一": 8764,
      "一亠一一乀一一一": 8765,
      "一一亀丐一上一一": 8766,
      "一一亅一一丄丂一": 8767,
      "一亀乁一一一一一": 8768,
      "一一一丁一乀乀一": 8769,
      "一一丢一且一一一": 8770,
      "一一一丑乀丂一一": 8771,
      "一一一丠一亀乀一": 8772,
      "一一丈一丰一一一": 8773,
      "一丠一一一丑一一": 8774,
      "一丠一一一丠丐一": 8775,
      "一一亠乂一一一一": 8776,
      "一一一丐一亊一一": 8777,
      "一一亁一丄一一一": 8778,
      "一一一丢亀丄一一": 8779,
      "一一一乐一丨一一": 8780,
      "一一乐一亀丄一一": 8781,
      "一一一丑丠丁一一": 8782,
      "一一一丐丄一": 8783,
      "一丂一一丨一一一": 8784,
      "一一丈一一丠丂一": 8785,
      "一一一丠一乀丄一": 8786,
      "一一丐丈亀丒一一": 8787,
      "一一丂一一乀丅一": 8788,
      "一一一丠一一丄丂": 8789,
      "一一一丠一丄丁一": 8790,
      "一一乄一一亀一一": 8791,
      "一一么丁丐丈一一": 8792,
      "一一一予一三一一": 8793,
      "一一乄丁丠一一一": 8794,
      "一亀一一一一一丂": 8795,
      "一一丠丂一一丈一": 8796,
      "一一一严一乊一一": 8797,
      "一一丠一一乀丂一": 8798,
      "一一一乀一予一一": 8799,
      "一一丘丅": 8800,
      "乂丄一一": 8801,
      "一乀丠一乀三一一": 8802,
      "一一丰一丈一一一": 8803,
      "一一丄丁一丁一一": 8804,
      "一一丢丁丐一一一": 8805,
      "亄丐一": 8806,
      "一一乀一亐": 8807,
      "一一一丁一丠丠一": 8808,
      "一一一丐一争一一": 8809,
      "一一乂丂一一一一": 8810,
      "一一一乄亀丄一一": 8811,
      "一丠丁一一丈一一": 8812,
      "一乀一一亀丄一一": 8813,
      "一一亀亀一一": 8814,
      "一亀乐一": 8815,
      "一一乂一": 8816,
      "一一丑一一丠一一": 8817,
      "一一一丐丄": 8818,
      "一一一一一丁亀一": 8819,
      "一一一乀一亐一一": 8820,
      "一一一且一丅一一": 8821,
      "丈亀": 8822,
      "丈丅一": 8823,
      "一一丁一一一丂丁": 8824,
      "一亀一一一亐一一": 8825,
      "一一一一乀一丠一": 8826,
      "一一一丒一亀乀一": 8827,
      "一一一一一乐三一": 8828,
[...]
